Episode 5182596
dated 1015372
The 766827
the 495010
of 427769
- 320368
a 298254
in 287508
and 277995
to 204817
A 187200
2 179431
: 176387
de 172939
i 171481
, 162367
on 155116
s@@ 154419
P@@ 152532
S@@ 152428
-@@ 146790
1 146740
T@@ 143023
& 141363
ing 139976
o 139263
y 138629
D@@ 138033
t@@ 137673
es 137054
m@@ 136115
k@@ 134214
B@@ 133266
! 132508
en 131662
b@@ 131179
d@@ 128361
h@@ 127632
L@@ 127395
n@@ 125682
l@@ 125393
N@@ 124134
c@@ 122055
M@@ 121975
er 121362
3 119910
K@@ 119688
F@@ 116437
R@@ 116237
H@@ 115016
p@@ 113977
C@@ 113612
G@@ 112753
f@@ 112722
e@@ 112454
ed 110317
(@@ 110087
t 109349
Part 108315
y@@ 107718
g@@ 107674
in@@ 105531
an 105065
s 104841
4 103586
ar@@ 103194
W@@ 101628
/@@ 100445
v@@ 99682
with 99061
5 98704
z@@ 98571
#1.4@@ 96569
March 96543
May 96314
#1.5@@ 94981
's 93666
e 93615
October 93313
V@@ 93007
at 92837
November 91923
April 91389
i@@ 90358
j@@ 90069
January 90010
for 89862
al@@ 89440
ch@@ 89300
? 88216
en@@ 88142
E@@ 87566
er@@ 87507
December 87492
February 87053
June 86676
September 86266
w@@ 85694
6 83916
7 83148
ers 82026
July 80440
it@@ 80361
J@@ 80217
10 79938
8 79830
an@@ 79712
r@@ 79664
Sh@@ 79279
A@@ 78368
Ch@@ 78240
#1.6@@ 78181
al 78162
is 77330
9 77325
at@@ 76673
I 75797
August 75671
or@@ 75406
u 74248
u@@ 72797
O@@ 71053
on@@ 69455
is@@ 68836
a@@ 68251
as 67814
La 67393
el 67091
'@@ 65606
kl. 65507
My 64869
I@@ 64824
o@@ 64792
ic@@ 64650
Day 64624
am@@ 64253
#1.7@@ 64192
et 63825
no 63401
Y@@ 62980
ar 61667
es@@ 61618
Z@@ 61437
) 61331
as@@ 61137
You 61109
la 60886
2021 60594
ia 60499
te@@ 60040
el@@ 59992
vs. 59544
le 59156
11 58868
re@@ 58744
#1.1 58671
12 58565
ie 58026
20 57896
18 57541
il@@ 57358
13 56974
or 56254
15 56110
. 55658
2022 55521
30 55419
Is 55342
14 55140
os 54997
16 54407
17 54317
st@@ 54222
2020 54201
19 53716
21 53518
der 53223
Al@@ 53180
#1.2 52993
#1.8@@ 52890
22 52807
2016 52696
24 52667
2013 52424
25 52060
Love 52023
23 51982
St@@ 51611
ol@@ 51528
2015 51314
et@@ 50715
2014 50509
it 50435
k 50242
#1.3 50132
27 50080
28 50029
2018 49945
26 49832
2019 49815
ro@@ 49642
New 49523
U@@ 49460
ter 49115
ri@@ 48663
s: 48623
2012 48441
ad@@ 48212
#2.@@ 48040
te 47997
ak@@ 47487
2017 47395
29 47252
em@@ 47044
#1.10@@ 47018
le@@ 46953
#1.9@@ 46911
#1.4 46678
ag@@ 46645
m 46170
un@@ 45711
2023 45220
Mar@@ 45172
d 45119
ig@@ 45052
Re@@ 44794
us@@ 44679
ac@@ 44452
sh@@ 44370
im@@ 44132
da@@ 44085
é@@ 43697
2024 43667
ine 43571
e: 43308
n 42832
#1.5 42715
ur@@ 42666
Man 42148
In@@ 42037
Un@@ 41995
ik@@ 41891
ra@@ 41682
Ma@@ 41476
ed@@ 41458
2@@ 41054
us 40870
ts 40828
2025 40686
3@@ 40649
se 40468
#1.6 40437
31 40407
In 40404
ti@@ 39898
id@@ 39652
ab@@ 39650
av@@ 39588
ul@@ 39526
z 39395
Se@@ 39179
vs 39149
ou@@ 39101
ter@@ 39077
os@@ 39058
Le@@ 38908
from 38244
ing@@ 38150
Bl@@ 37673
ent@@ 37400
Fl@@ 36527
e, 36485
Die 36403
2011 36246
ation 36214
om@@ 36184
#1.11@@ 35795
th@@ 35719
#3.@@ 35659
ies 35633
El 35462
Me 35441
ir@@ 35373
#1.7 35372
qu@@ 35136
One 35116
Life 35089
Car@@ 34858
ap@@ 34749
Your 34448
Sp@@ 34302
il 34248
Th@@ 34199
x@@ 33998
um@@ 33966
#1.8 33946
ic 33697
... 33632
by 33496
re 33352
ver@@ 33301
am 33251
und 33232
0@@ 33099
se@@ 33013
ot@@ 32859
4@@ 32816
Big 32620
An@@ 32416
' 32297
op@@ 32102
s, 32083
ch 32072
ut@@ 31925
Night 31910
Show 31816
Time 31768
It 31563
#1.12@@ 31409
ä@@ 31218
age 31109
Be@@ 30972
est 30875
2010 30868
#1.13@@ 30676
man 30592
All 30584
ta 30562
#2.1@@ 30544
h 30512
World 30485
Cl@@ 30416
g 30389
Le 30376
ec@@ 30322
How 30269
to@@ 30256
ent 30227
No 30195
th 30005
ai 29829
#1.9 29742
Ar@@ 29719
ra 29702
"@@ 29595
De@@ 29382
ov@@ 29370
and@@ 29311
pl@@ 29301
na 29254
ne 29134
Me@@ 29124
ina 28877
ip@@ 28691
#1.10 28652
Up 28502
ist 28488
.@@ 28470
od@@ 28351
S 28282
To 28279
io 28236
ah@@ 28125
O 28031
ten@@ 27808
p 27599
Out 27545
eb@@ 27530
El@@ 27381
Man@@ 27245
Live 27184
ib@@ 27166
Story 27157
0 27083
ly 27068
á@@ 26967
Par@@ 26928
iz@@ 26901
What 26850
l 26822
#4.@@ 26636
Game 26599
do 26540
ill@@ 26539
im 26489
#1.14@@ 26389
2005 26366
un 26298
ting 26273
Qu@@ 26230
19@@ 26200
| 26164
Black 26095
2004 25986
um 25831
ad 25831
ö@@ 25647
1@@ 25598
ie@@ 25565
ian 25422
ok@@ 25413
Pro@@ 25396
de@@ 25364
ks 25193
y's 25190
#1.11 25170
Der 25141
ug@@ 25119
iv@@ 25048
ay@@ 25037
ü@@ 25000
ten 24998
id 24983
Ab@@ 24963
Top 24955
ne@@ 24875
au@@ 24871
oc@@ 24657
2007 24651
ant@@ 24632
First 24591
des 24569
He@@ 24556
Last 24551
ty 24545
Mon@@ 24514
ist@@ 24485
da 24472
" 24401
ob@@ 24367
ard 24337
Sl@@ 24271
5@@ 24268
ell@@ 24242
50 24229
#1.12 24220
y: 24189
2006 24162
ate 24154
est@@ 24138
We 24100
#7.@@ 24092
a: 23985
end@@ 23977
Bar@@ 23909
Am@@ 23851
2009 23848
per@@ 23826
Ne@@ 23802
é 23712
Home 23594
me 23568
uk@@ 23487
Sch@@ 23481
6@@ 23468
oo@@ 23401
az@@ 23394
40 23392
ang@@ 23353
2008 23338
ka 23324
House 23257
Sc@@ 23245
That 23212
den 23161
ted 23122
b 23063
Con@@ 23021
E 23015
ow@@ 22831
ach@@ 22818
ey 22795
T 22793
ot 22760
Not 22610
og@@ 22575
On 22573
ud@@ 22523
ana 22503
x 22428
ant 22246
les 22233
This 22163
a, 22107
#4.1@@ 22096
Pl@@ 22077
ry 22068
ô@@ 22031
Mor@@ 21981
ma 21859
#1.13 21848
Girl 21807
37 21791
Best 21689
ge 21681
38 21576
32 21502
Star 21475
#8.@@ 21455
ub@@ 21434
39 21427
he@@ 21410
33 21396
tion 21330
Tr@@ 21326
35 21261
Har@@ 21209
ite 21197
Ver@@ 21148
sp@@ 21111
Su@@ 21078
e! 21058
Sk@@ 21018
ans 21011
34 20997
y, 20995
Special 20988
Sw@@ 20987
ir 20957
Her 20943
ess@@ 20846
Who 20835
ph@@ 20824
Are 20823
41 20784
#1.15@@ 20778
2003 20765
42 20762
r 20713
#5.1@@ 20696
X@@ 20678
Be 20678
36 20672
48 20663
í@@ 20512
45 20473
En@@ 20378
ass@@ 20335
Little 20318
sch@@ 20315
44 20308
2001 20293
ity 20289
43 20274
De 20254
7@@ 20253
Br@@ 20181
all@@ 20175
49 20159
47 20123
are 20111
Gl@@ 20108
ru@@ 20075
bl@@ 20031
Family 20019
die 20006
son 20002
v 19972
#5.@@ 19951
D 19943
#1.38@@ 19922
#1.14 19919
ge@@ 19918
Christmas 19872
To@@ 19770
#6.@@ 19753
46 19736
#3.1@@ 19666
su@@ 19663
60 19640
Two 19583
#1.39@@ 19549
55 19530
ich@@ 19457
del 19451
ue 19440
#1.15 19390
a's 19378
2002 19355
ash@@ 19305
2000 19290
56 19274
kl@@ 19229
For 19214
ons 19159
53 19153
51 19137
Gu@@ 19136
ton 19129
Movie 19123
ce 19119
tes 19113
Aflevering 19110
ate@@ 19103
que 19078
tr@@ 19030
ion 19028
ow 19008
ens@@ 19004
Ap@@ 18990
ins 18975
Les 18856
52 18834
con@@ 18777
if@@ 18767
L'@@ 18748
ya 18704
#1.16 18665
#6.1@@ 18626
ion@@ 18607
We@@ 18551
ij@@ 18524
ier@@ 18480
#3@@ 18472
ou 18471
Ex@@ 18426
Ad@@ 18411
als 18374
du 18343
ice 18333
ard@@ 18327
Cor@@ 18314
ur 18305
#9.@@ 18217
ings 18179
Red 18158
57 18143
10@@ 18139
par@@ 18104
54 18085
ds 18042
Avsnitt 18042
8@@ 18008
58 17996
59 17918
ff@@ 17897
9@@ 17859
64 17785
ang 17687
Week 17656
aw@@ 17640
City 17639
Her@@ 17624
00 17614
#1.16@@ 17516
Back 17481
ak 17467
66 17458
ast@@ 17449
Per@@ 17417
65 17400
#1.40@@ 17399
Death 17394
About 17373
61 17359
ore 17331
Ste@@ 17311
#1.17 17295
An 17291
der@@ 17284
1999 17274
ure 17272
ann@@ 17264
ise 17222
RE@@ 17220
63 17193
one 17186
62 17160
69 17150
ay 17058
ters 17055
Do 17022
Pe@@ 16996
ung 16974
#1.18 16965
ance 16925
ek@@ 16913
67 16912
be@@ 16902
68 16835
Col@@ 16819
Di@@ 16781
Mo@@ 16761
70 16654
Ro@@ 16615
ro 16610
om 16593
1998 16585
#1.19 16567
20:55 16542
ys@@ 16455
me@@ 16389
land 16348
Good 16343
With 16337
anc@@ 16283
Kar@@ 16269
#1.20 16252
es: 16220
C 16220
ara 16200
Pre@@ 16151
iss@@ 16088
sk@@ 16088
80 16085
#1.17@@ 16004
72 16002
War 15968
71 15950
ah 15945
75 15930
w 15927
Party 15877
ner 15850
Tri@@ 15831
c 15813
#7.1@@ 15800
77 15785
73 15785
e's 15762
ial 15755
Lost 15737
74 15699
76 15681
ens 15669
Final 15669
ale 15661
ets 15655
ve 15631
Rec@@ 15626
No@@ 15623
ita 15602
It's 15591
res@@ 15556
Tra@@ 15520
78 15495
Wh@@ 15473
2: 15471
Gr@@ 15457
em 15407
As@@ 15385
79 15380
#10.@@ 15352
di 15350
f 15338
#1.49@@ 15309
Super@@ 15296
eg@@ 15287
he 15268
Don't 15244
18@@ 15209
82 15146
81 15143
ain 15109
ish@@ 15109
ick@@ 15098
#@@ 15097
ber@@ 15088
#1.21 15086
uc@@ 15085
ath@@ 15076
84 15073
#1.18@@ 15073
ary 15062
83 15058
ence 15042
85 15034
88 15024
ain@@ 15022
ep@@ 15021
Dead 15010
Is@@ 14992
Em@@ 14992
86 14984
01 14976
So@@ 14970
#3.2@@ 14962
Will 14961
For@@ 14917
87 14903
l'@@ 14898
89 14892
His 14884
Secret 14869
au 14865
News 14863
aj@@ 14843
#1.22 14840
oll@@ 14839
à 14826
Te@@ 14785
ut 14774
af@@ 14748
ja 14728
e/@@ 14633
ran@@ 14600
#1.23 14598
Min@@ 14590
ment 14562
Cr@@ 14558
Great 14501
Like 14494
Das 14482
its 14470
s! 14455
Hot 14436
#1.24 14436
ó@@ 14413
II 14412
Super 14408
per 14374
ers@@ 14359
AN@@ 14355
Ge@@ 14350
ley 14299
Sal@@ 14286
ts@@ 14285
able 14284
02 14280
Co@@ 14267
ger 14229
ke 14143
05 14141
Po@@ 14137
ier 14135
st 14107
#1.19@@ 14064
TV 14063
pr@@ 14046
90 14029
Fre@@ 14022
Get 14014
ian@@ 14009
ica 14000
White 13953
ni 13945
N 13912
Bad 13911
Ter@@ 13908
Mc@@ 13890
ous 13880
Bu@@ 13821
Go 13818
When 13807
99 13802
ô 13775
From 13767
War@@ 13748
#1.25 13730
mar@@ 13713
Bo@@ 13698
ino 13685
Pan@@ 13679
Fe@@ 13677
03 13647
e-@@ 13636
Ser@@ 13627
ke@@ 13604
ack@@ 13596
Our 13592
ell 13573
04 13556
Sol@@ 13503
our@@ 13491
!! 13489
#8.1@@ 13483
After 13481
ive 13477
ick 13471
#1.26 13464
up@@ 13451
P 13441
John 13436
Tw@@ 13394
93 13383
d'@@ 13381
92 13354
Ag@@ 13343
On@@ 13322
ada 13321
95 13307
98 13302
Com@@ 13288
Girls 13272
91 13268
Sex 13267
17@@ 13261
mon@@ 13259
94 13221
97 13202
96 13173
06 13147
ess 13125
ev@@ 13115
og 13094
King 13090
fl@@ 13089
ade 13078
Of 13064
07 13049
Gra@@ 13015
gl@@ 13013
1997 13003
Sm@@ 12987
o, 12974
201@@ 12964
amp@@ 12958
ek 12947
Hor@@ 12945
Che@@ 12940
#1.27 12914
#11.@@ 12902
ha 12899
1995 12884
e? 12877
out 12870
Baby 12869
com@@ 12866
er's 12855
Ra@@ 12811
Sn@@ 12811
ake 12806
our 12794
#1.28 12774
Folge 12760
ics 12749
Y 12748
Out@@ 12745
mo@@ 12727
ari 12716
08 12714
And 12688
ors 12686
Film 12675
Dis@@ 12636
Boo@@ 12603
#1.29 12601
s/@@ 12594
Ac@@ 12579
Old 12567
Mat@@ 12559
09 12549
Road 12516
Pr@@ 12495
More 12471
ena 12470
ane 12461
#1.30 12448
ama 12444
Real 12431
ki 12429
Can 12427
R 12426
Gets 12421
Mal@@ 12408
Los 12393
yl@@ 12387
Er@@ 12358
Dark 12352
ns 12327
K 12321
Interview 12320
Down 12296
Ber@@ 12282
ih@@ 12269
ile 12266
ker 12265
Res@@ 12240
Del@@ 12225
Dream 12189
Or@@ 12110
pro@@ 12100
Just 12091
Hom@@ 12080
Bur@@ 12063
American 12058
cl@@ 12057
we@@ 12050
#4.2@@ 12050
ong 12040
ric@@ 12033
Ph@@ 12030
ata 12023
ars 12019
Was 12008
gr@@ 11987
enc@@ 11983
ber 11974
#9.1@@ 11966
ap 11962
Un 11956
o: 11950
Jo@@ 11927
.2@@ 11909
gu@@ 11907
Over 11905
Ed@@ 11893
y/@@ 11868
La@@ 11797
ations 11746
ind@@ 11745
Chapter 11739
es, 11721
Play@@ 11718
Ros@@ 11711
School 11711
L 11708
Tre@@ 11704
sc@@ 11696
Star@@ 11687
ai@@ 11679
Mas@@ 11671
#1.31 11642
ik 11627
ong@@ 11616
mit 11581
#12.@@ 11580
#1.32 11572
man@@ 11548
Pol@@ 11539
Music 11539
#2.1 11529
er, 11526
X 11525
Tur@@ 11522
Pa@@ 11515
Sun@@ 11510
Ev@@ 11498
Go@@ 11489
ust@@ 11471
Dar@@ 11448
Sam@@ 11446
Making 11429
ez@@ 11425
1996 11384
ip 11368
in' 11363
Way 11359
Why 11356
enn@@ 11351
4: 11295
Bre@@ 11267
#1.33 11248
Cas@@ 11246
Have 11227
Sa@@ 11224
Bra@@ 11215
eng@@ 11191
Fin@@ 11191
tor 11189
#1.34 11152
ado 11151
Battle 11151
er: 11149
Wal@@ 11141
M 11126
ical 11119
za 11113
ill 11112
Cap@@ 11110
Wild 11107
ette 11104
Gar@@ 11104
Mil@@ 11066
Wor@@ 11065
At@@ 11056
Behind 11045
IN@@ 11043
for@@ 11040
inn@@ 11030
up 11025
W 11024
#1.35 11009
Rob@@ 11001
Nor@@ 10979
Cre@@ 10964
; 10948
Des@@ 10932
Video 10896
Boy 10864
Off 10850
#1.36 10846
Three 10843
Blue 10833
king 10829
Heart 10800
Review 10794
Kn@@ 10750
ish 10749
ach 10739
1: 10722
ag 10696
Summer 10674
AS@@ 10659
#1.37 10652
AR@@ 10651
Pat@@ 10627
Ke@@ 10621
#1.23@@ 10619
her 10611
ide 10607
Mel@@ 10588
End 10574
#1.38 10572
tem@@ 10569
ien@@ 10565
#2@@ 10541
Space 10505
sa 10486
ig 10452
#1.39 10451
:00 10414
ll@@ 10412
Bab@@ 10411
ex@@ 10400
Ind@@ 10383
People 10373
ock@@ 10372
Tor@@ 10367
Happy 10355
ura 10343
3: 10336
#1.22@@ 10336
t: 10333
ight 10322
Gen@@ 10317
#1.40 10317
Don@@ 10313
ast 10312
Cra@@ 10292
Dec@@ 10286
day 10280
Div@@ 10247
aus 10246
i: 10243
Blood 10238
tra@@ 10234
Art 10232
ga 10231
art 10230
#1.24@@ 10203
Dr. 10198
Pilot 10192
ats 10184
Woman 10182
Fr@@ 10178
ien 10160
Du@@ 10127
New@@ 10123
my 10105
I'm 10087
co 10076
Monster 10076
app@@ 10070
All@@ 10063
Dr@@ 10061
ush@@ 10058
ating 10050
Gro@@ 10050
ere 10043
High 10038
#13.@@ 10038
els 10021
ma@@ 10021
#10.1@@ 9956
Up@@ 9914
ft 9901
Do@@ 9879
So 9873
mer 9865
all 9863
Gam@@ 9857
Make 9854
Sur@@ 9841
bo@@ 9836
Fire 9824
ti 9811
#1.41 9808
Room 9785
#2.2 9784
ank@@ 9777
Mr. 9764
Bulletin 9761
ida@@ 9751
Young 9747
Bro@@ 9745
#1.42 9743
Av@@ 9730
Gre@@ 9720
a-@@ 9716
ez 9703
ipp@@ 9689
Cu@@ 9683
Bon@@ 9683
ys 9676
iel@@ 9676
yn@@ 9674
#1.43 9667
B 9660
Case 9655
#1.25@@ 9614
#2.3 9600
Ha@@ 9597
#1.44 9589
inc@@ 9583
Power 9583
än@@ 9580
ung@@ 9562
ene 9556
#1.26@@ 9556
Murder 9548
Cou@@ 9518
#1.45 9516
#5.2@@ 9514
Mus@@ 9507
ash 9495
be 9492
ta@@ 9489
ire 9469
Men 9461
ech@@ 9458
-2@@ 9457
era 9428
Never 9425
tion@@ 9419
tor@@ 9402
ful 9400
#1.27@@ 9399
y! 9396
Hollywood 9390
min@@ 9387
Bel@@ 9379
Friends 9378
Things 9370
ally 9361
Rom@@ 9357
Comp@@ 9351
#1.46 9351
David 9335
Rep@@ 9316
#2.4 9316
oh@@ 9315
Lov@@ 9315
Hel@@ 9310
#4@@ 9304
#1.47 9288
#14.@@ 9269
#1.48 9264
iy@@ 9250
i-@@ 9239
ame 9236
ition 9228
una 9212
mars 9211
Li@@ 9203
Play 9192
i, 9170
Rem@@ 9167
Project 9141
#1.28@@ 9140
Us 9137
mai 9129
Ol@@ 9124
#1.49 9124
Kh@@ 9112
Michael 9111
13@@ 9109
Tim@@ 9104
#1.50 9097
ator 9070
/The 9070
Year 9068
AL@@ 9058
+ 9046
ko 9039
#1.20@@ 9039
Dog 9038
Lo@@ 9038
ement 9032
ack 9032
Bal@@ 9010
United 9005
Days 8984
Char@@ 8966
ase 8965
Island 8956
das 8954
ire@@ 8952
ze 8949
ates 8939
#2.5 8889
Bas@@ 8870
Mad@@ 8857
Mu@@ 8847
ich 8832
G 8830
Dance 8825
Ret@@ 8816
Inter@@ 8800
Season 8796
des@@ 8791
Into 8790
Inside 8773
Cat@@ 8771
ail@@ 8767
ia@@ 8763
Return 8763
ico 8742
#1.51 8740
á 8737
#1.29@@ 8733
tic 8731
Je@@ 8725
ost@@ 8724
Can@@ 8716
Acc@@ 8704
Val@@ 8698
20@@ 8697
je 8696
ole 8694
di@@ 8693
ull@@ 8693
ä 8693
#1.52 8690
oss@@ 8685
ve@@ 8683
ps 8681
Lu@@ 8678
Bor@@ 8670
Call 8661
amb@@ 8658
Magic 8658
Fac@@ 8657
1994 8652
Pal@@ 8647
Double 8645
Back@@ 8639
Comm@@ 8632
ver 8623
Sen@@ 8622
ace 8615
ock 8593
Wars 8591
en, 8584
ito 8561
Ru@@ 8560
James 8557
Women 8554
ort@@ 8547
Ghost 8545
ç@@ 8530
ste@@ 8530
Il 8517
Games 8513
18:45 8509
und@@ 8507
ink@@ 8504
von 8498
#1.53 8490
Club 8486
#2.6 8485
ee 8479
Cal@@ 8469
Where 8462
Cur@@ 8462
U 8460
Disney 8441
#1.54 8440
#11.1@@ 8436
ca 8431
ite@@ 8431
ø@@ 8422
Mis@@ 8421
une 8415
elle 8414
Liv@@ 8406
#1.55 8401
Challenge 8398
Bat@@ 8387
Dem@@ 8386
april 8383
Por@@ 8381
Street 8379
Most 8367
If 8361
für 8359
ure@@ 8355
Vol@@ 8350
ión 8347
ines 8346
ual 8345
Rock 8344
5: 8344
Épisode 8343
t, 8338
Goes 8337
è@@ 8333
dy 8332
ying 8324
Truth 8308
auf 8305
li@@ 8302
Grand 8285
ves 8279
Know 8264
omb@@ 8252
ora 8250
Stor@@ 8244
ef@@ 8243
#1.56 8241
Cro@@ 8237
Under 8230
juni 8228
No. 8209
mo 8206
igh@@ 8204
Hun@@ 8197
ente 8195
Reg@@ 8193
Food 8187
en: 8186
umb@@ 8186
ía 8184
pp@@ 8177
over 8176
wa 8172
ents 8171
Sea 8168
#1.57 8166
Ep@@ 8156
Water 8155
Bus@@ 8149
old 8147
#1.58 8143
Awards 8115
West 8101
Aw@@ 8093
#1.59 8092
Take 8091
ando 8087
Son@@ 8085
Ben@@ 8078
Ka@@ 8077
16@@ 8073
Ta@@ 8069
ini 8062
ul 8061
ort 8060
Ins@@ 8057
ym@@ 8056
ER@@ 8056
EN@@ 8048
rop@@ 8047
#1.60 8038
23@@ 8035
ê@@ 8021
Anal 8019
Conf@@ 8005
juli 7997
#1.30@@ 7990
way 7983
er/@@ 7977
ation@@ 7973
å@@ 7971
202@@ 7968
tl@@ 7958
ness 7938
Stra@@ 7936
ss@@ 7934
-0@@ 7933
ding 7923
#15.@@ 7923
ms 7888
Too 7880
Day@@ 7873
Op@@ 7870
ani 7864
#1.37@@ 7858
tie 7852
eth@@ 7847
RI@@ 7840
She 7830
ath 7820
ren 7812
j 7808
hi 7808
Living 7804
Land 7787
Light 7780
ven@@ 7771
Sweet 7770
AT@@ 7770
rec@@ 7763
Meet 7742
State 7732
York 7731
Q@@ 7730
Hol@@ 7729
Mer@@ 7728
Sav@@ 7726
a! 7726
con 7721
Pet@@ 7719
Ak@@ 7718
Kr@@ 7715
America 7709
ute 7696
ose 7696
Pri@@ 7694
su 7686
Leg@@ 7674
#6.2@@ 7669
ano 7665
í 7661
They 7654
Green 7650
Got 7650
aya 7649
ler 7643
#1.61 7640
F 7639
Spe@@ 7635
?! 7635
ions 7627
#1.62 7623
Talk 7622
#12.1@@ 7620
Ein 7618
Bri@@ 7616
Journey 7614
Fa@@ 7607
Lady 7607
los 7606
ye 7606
cu@@ 7591
Mom@@ 7577
Dra@@ 7570
Imp@@ 7563
Jack 7552
#1.63 7552
Ass@@ 7550
Date 7548
VI@@ 7547
Mystery 7547
Fight 7543
Tar@@ 7537
vo@@ 7525
Long 7514
ans@@ 7513
Sub@@ 7512
ress 7502
History 7500
Tag 7497
art@@ 7488
#1.64 7484
San 7483
fin@@ 7483
amm@@ 7477
#1.21@@ 7474
:@@ 7470
2026 7465
Ball@@ 7464
ero 7453
ood@@ 7446
#1.65 7441
ight@@ 7396
Nat@@ 7395
ú@@ 7393
Over@@ 7390
van 7389
Now 7383
Face 7364
15@@ 7360
Im@@ 7351
Sim@@ 7344
Horror 7343
Fri@@ 7342
û@@ 7332
Fun@@ 7327
ni@@ 7325
tive 7320
May@@ 7319
#2.7 7316
Tom 7310
uss@@ 7304
#1.66 7304
12@@ 7299
jan. 7299
The@@ 7298
ES@@ 7298
San@@ 7293
på 7293
Perfect 7293
Gri@@ 7292
Paul 7288
Kl@@ 7288
Pur@@ 7286
ory 7284
200@@ 7281
ony 7279
Killer 7274
Joe 7272
#1.33@@ 7272
ala 7265
tos 7263
mu@@ 7262
wor@@ 7258
Kat@@ 7257
#1.67 7257
Jan@@ 7249
En 7246
#1.68 7244
lo@@ 7243
Sil@@ 7240
Far@@ 7239
opp@@ 7237
Movies 7236
iso@@ 7235
ord@@ 7228
Wa@@ 7223
Kids 7221
Deep 7212
Jun@@ 7206
1993 7204
ond@@ 7203
tions 7200
Second 7197
op 7192
Round 7191
St. 7188
#1.69 7182
Hard 7181
pe@@ 7181
tim@@ 7180
let 7170
Years 7167
Den@@ 7162
Vis@@ 7156
#1.70 7156
Stre@@ 7151
RO@@ 7150
Luc@@ 7135
Series 7125
1990 7121
Med@@ 7111
ada@@ 7107
ated 7104
a/@@ 7097
ato 7090
ing: 7089
Here 7087
ix 7085
14@@ 7078
o-@@ 7074
feb. 7062
#1.34@@ 7061
#1.71 7055
Fall 7054
#16.@@ 7052
Sand@@ 7044
uck@@ 7040
God 7035
tur@@ 7033
At 7031
Evil 7030
Exp@@ 7028
#1.72 7026
fe@@ 7022
Queen 7018
#2.2@@ 7015
Ho@@ 7011
itch@@ 7008
ée 7005
pre@@ 7003
Cy@@ 6994
Song 6991
va 6990
mi 6989
AM@@ 6984
#1.73 6984
Late 6980
ison 6979
ix@@ 6978
Come 6966
her@@ 6966
Ky@@ 6962
ny 6958
#1.74 6957
#1@@ 6955
Beyond 6943
Mario 6938
Let's 6935
aire 6930
Dev@@ 6928
Rock@@ 6927
Lif@@ 6926
Bölüm 6924
ny@@ 6921
Has 6920
#1.75 6920
ous@@ 6918
bar@@ 6917
Moon 6916
#2.8 6910
Jul@@ 6907
Ger@@ 6906
ures 6904
gen 6884
ham 6883
Golden 6876
son@@ 6874
rit@@ 6871
okt. 6864
Wil@@ 6861
#1.76 6861
go 6860
iz 6849
Tit@@ 6846
#1.77 6841
Birthday 6835
Park 6830
He 6822
Secrets 6820
e) 6819
ious 6815
2) 6813
Reb@@ 6812
#1.78 6812
Deb@@ 6808
men 6807
South 6807
Team 6803
ão 6797
on, 6794
Sor@@ 6794
Money 6790
#1.35@@ 6790
ör@@ 6789
/ 6784
air@@ 6783
#1.32@@ 6783
ome 6780
Future 6765
oku 6762
ning 6760
#1.79 6755
Ju@@ 6752
Friend 6741
Ban@@ 6739
ky 6735
#1.80 6735
Mov@@ 6734
H 6730
Cru@@ 6728
gen@@ 6726
US@@ 6721
ika 6712
1992 6708
o's 6700
ri 6696
less 6686
CH@@ 6682
#13.1@@ 6682
Ren@@ 6678
aus@@ 6672
ert@@ 6669
Made 6656
ery 6654
Men@@ 6653
Dreams 6647
end 6643
Town 6640
True 6639
Boys 6638
po@@ 6634
ona 6634
Hon@@ 6634
Dan@@ 6632
Break@@ 6627
#7.2@@ 6614
sep. 6613
ress@@ 6612
illa 6611
Night@@ 6605
Everything 6605
Gold 6601
God@@ 6598
nov. 6595
Cat 6590
V 6588
Las 6583
oi 6583
Fu@@ 6575
Before 6571
Ven@@ 6570
Vo@@ 6569
ó 6562
Shar@@ 6557
Wrong 6555
#1.81 6553
As 6546
Trump 6544
Only 6537
Bet@@ 6534
ing, 6534
#1.82 6530
Sing@@ 6524
Camp@@ 6518
ux 6510
ling 6509
#1.83 6507
tle 6498
#1.36@@ 6495
Adventure 6493
#1.84 6490
!@@ 6489
Ice 6486
Run 6484
Mag@@ 6483
Halloween 6483
ron@@ 6480
Other 6480
Box 6479
olog@@ 6475
Miss 6474
#1.85 6469
Doctor 6468
sl@@ 6464
an's 6459
Ir@@ 6457
She@@ 6453
Mir@@ 6452
?@@ 6445
Ob@@ 6443
Af@@ 6434
Next 6427
al: 6419
ants 6417
time 6414
br@@ 6411
Fil@@ 6411
Rel@@ 6409
#1.86 6408
.1@@ 6406
Hand@@ 6402
#1.87 6401
ias 6396
Welcome 6396
ol 6394
1-@@ 6388
#1.88 6388
ela 6377
vel@@ 6374
Stars 6365
ON@@ 6364
#1.89 6363
Evening 6337
Bh@@ 6336
land@@ 6334
11@@ 6333
i's 6332
uck 6331
LE@@ 6330
#1.90 6324
ß@@ 6317
ew@@ 6313
Full 6311
TE@@ 6311
Body 6310
si 6309
uch@@ 6308
1.@@ 6308
Rev@@ 6306
Under@@ 6304
Going 6303
Show@@ 6292
Earth 6289
Untitled 6283
ains 6274
Son 6271
LO@@ 6268
Sex@@ 6267
akes 6266
Through 6263
Pass@@ 6260
Thre@@ 6258
Dam@@ 6253
Tom@@ 6245
aug. 6242
no@@ 6239
zz@@ 6238
Som@@ 6236
â@@ 6222
Dor@@ 6219
#1.91 6215
Mac@@ 6209
Pic@@ 6206
Cam@@ 6205
Coll@@ 6202
Land@@ 6202
y-@@ 6196
#1.92 6192
Adventures 6189
ami 6188
Guest 6184
Four 6183
zu 6181
ass 6174
mer@@ 6173
#1.93 6165
Win@@ 6162
1991 6162
Fran@@ 6153
you 6151
Five 6145
fer@@ 6142
But@@ 6139
Pra@@ 6138
és 6137
Red@@ 6134
ido 6133
Car 6131
#1.94 6131
ism 6126
ser@@ 6125
Look 6125
ern@@ 6124
tel@@ 6116
Hell 6116
ola 6110
Ba@@ 6109
#1.95 6109
ken 6108
urs 6107
Hal@@ 6103
Ass 6103
ris 6100
Ang@@ 6100
Tak@@ 6098
Peter 6095
AC@@ 6091
Str@@ 6089
End@@ 6087
so 6080
Miss@@ 6078
And@@ 6077
Girl@@ 6073
Trans@@ 6071
ink 6069
Again 6068
chen 6068
#1.96 6062
Can't 6056
You@@ 6054
iya 6052
Est@@ 6051
sen@@ 6050
Mark 6049
!!! 6048
#3.1 6044
#17.@@ 6041
ère 6040
ights 6038
Blind 6038
#1.97 6038
Pu@@ 6033
Ham@@ 6032
6: 6027
1) 6022
J 6021
tu@@ 6017
dem 6014
LI@@ 6008
vom 6005
ida 6001
#1.98 5999
#1.99 5997
ING 5995
Another 5989
yp@@ 5987
ney 5986
lo 5985
Not@@ 5982
Chris 5981
See 5980
ind 5974
2021: 5969
las 5962
ton@@ 5960
oo 5957
#1.100 5957
1/@@ 5956
att@@ 5947
1989 5945
ky@@ 5941
Mich@@ 5940
ble 5935
gh@@ 5935
en's 5927
Mother 5926
air 5925
Business 5922
Place 5920
yn 5919
jo 5915
iana 5915
ime 5915
Bec@@ 5904
s' 5903
#1.2@@ 5903
Test 5897
Their 5897
an, 5894
What's 5893
rag@@ 5891
Black@@ 5890
ches 5890
over@@ 5890
Tro@@ 5888
zh@@ 5882
DE@@ 5880
Part@@ 5878
är@@ 5877
#2.9 5868
It@@ 5865
There 5858
Pun@@ 5854
ck@@ 5853
ñ@@ 5852
Stories 5848
Loo@@ 5842
Fun 5841
Riv@@ 5838
Revenge 5836
row@@ 5833
Away 5828
Legend 5826
Kal@@ 5826
Fal@@ 5818
Am 5813
ster 5794
Wedding 5786
oon 5784
Race 5783
ei 5783
ians 5780
#14.1@@ 5780
mor@@ 5779
ón 5774
d: 5773
ula 5773
tiv@@ 5772
vi@@ 5769
Disc@@ 5763
Ever 5760
Trouble 5759
ira 5758
BYU 5757
Kor@@ 5755
q@@ 5743
Ann@@ 5742
war@@ 5741
eta 5740
Holiday 5738
Fuck 5737
ista 5735
Free 5731
ka@@ 5730
ht 5727
Beauty 5724
bur@@ 5717
Inv@@ 5717
bu@@ 5712
Want 5711
#1.101 5707
Teen 5706
Ze@@ 5705
Rid@@ 5695
Kill 5695
2. 5692
#1.102 5692
Bot@@ 5690
ji 5681
Festival 5681
Odcinek 5677
Escape 5673
Fire@@ 5671
ads 5671
ign@@ 5668
River 5667
Beach 5667
Met@@ 5661
Programa 5656
ete 5652
#1.43@@ 5651
Dist@@ 5650
1987 5643
#1.103 5641
Right 5633
s? 5631
Tale 5628
Country 5621
ros 5620
ha@@ 5614
CO@@ 5613
#1.104 5607
Off@@ 5606
ün@@ 5605
Trip 5604
tre@@ 5602
ards 5602
#1.44@@ 5601
Fra@@ 5600
Bill 5594
#2.10 5594
cher 5589
22:55 5587
Famil@@ 5586
Bull@@ 5584
George 5579
ante 5572
ert 5571
sen 5570
ies@@ 5566
Book 5565
Rose 5562
North 5561
Dru@@ 5557
y? 5554
#8.2@@ 5553
ship 5552
Jer@@ 5545
ique 5544
Dirty 5542
#1.105 5540
By 5539
1988 5536
Scar@@ 5533
osh@@ 5533
Winter 5528
Work 5524
ige 5516
oul@@ 5515
Attack 5515
iff@@ 5512
...@@ 5512
Robert 5511
Pas@@ 5511
Gone 5511
Hum@@ 5507
Ko@@ 5505
anda 5497
Vers@@ 5492
ST@@ 5491
#1.106 5490
7: 5489
Manchester 5487
Mind 5486
room 5485
Kon@@ 5483
ores 5476
ound@@ 5467
hr@@ 5465
Finale 5457
#1.107 5457
ho 5455
ots 5454
Lou@@ 5451
Pain@@ 5447
ille 5441
che 5437
aku 5435
Nu@@ 5434
Eye 5433
vers@@ 5430
Side 5429
Mike 5425
sec@@ 5424
Ca@@ 5424
Van@@ 5419
Guy 5418
#1.108 5415
Open 5414
ED 5413
yr@@ 5409
dé@@ 5408
#1.109 5407
æ@@ 5406
Pop@@ 5401
mes 5400
an: 5398
res 5394
#1.110 5394
#1.45@@ 5390
Run@@ 5384
Dragon 5378
down 5376
Lim@@ 5368
Than 5368
ko@@ 5362
2.@@ 5362
des. 5359
Sky 5358
Scenes 5355
OR@@ 5354
Eyes 5353
Ram@@ 5348
ori 5345
Def@@ 5343
ye@@ 5336
IL@@ 5334
Tour 5333
oun@@ 5330
Polit@@ 5329
ella 5327
Will@@ 5327
Sum@@ 5326
#15.1@@ 5323
Sun 5317
#1.111 5314
Rh@@ 5313
oes 5313
#1.112 5312
Getting 5306
ses 5301
car@@ 5298
mat@@ 5291
1. 5291
ect 5290
Let 5288
Match 5286
eh@@ 5286
ked 5285
#1.113 5283
bor@@ 5281
30@@ 5280
Inst@@ 5279
mus@@ 5278
Job 5277
sol@@ 5275
Dream@@ 5269
red 5265
Rod@@ 5263
Gran@@ 5258
let@@ 5250
#1.114 5247
Sar@@ 5240
Angel@@ 5231
#1.115 5231
Group 5230
Hero 5226
Bob 5216
Rac@@ 5216
Bru@@ 5211
Terror 5205
#1.47@@ 5205
#5@@ 5202
Clos@@ 5200
ination 5195
Fer@@ 5192
ville 5191
Cop@@ 5187
Hy@@ 5187
#1.46@@ 5187
#1.116 5185
ows 5177
men@@ 5173
acks 5172
Still 5171
ood 5168
3. 5167
itter 5166
do@@ 5162
shi 5161
Art@@ 5158
Mur@@ 5158
Ja@@ 5156
ci@@ 5155
Viv@@ 5155
Los@@ 5154
#1.117 5154
Pos@@ 5153
Pen@@ 5151
int@@ 5147
TH@@ 5146
co@@ 5141
#1.118 5141
Bill@@ 5140
d, 5133
TI@@ 5129
por 5128
$@@ 5125
Better 5124
Jack@@ 5123
Wife 5121
erc@@ 5119
Kam@@ 5118
Ever@@ 5117
rat@@ 5109
por@@ 5108
4. 5107
Nov@@ 5106
#1.119 5104
Mod@@ 5101
Without 5095
inger 5092
Dri@@ 5091
nie 5088
Kan@@ 5088
Bak@@ 5087
Angel 5086
#18.@@ 5086
imm@@ 5084
Stop 5084
Oc@@ 5084
hu@@ 5078
#1.120 5074
ture 5066
ba 5064
Being 5064
1985 5062
iro 5052
Bad@@ 5051
Mach@@ 5051
teri@@ 5049
Bi@@ 5047
ft@@ 5046
Air 5045
Crazy 5043
But 5041
Edition 5040
#1.48@@ 5040
#3.2 5039
chi 5037
Children 5032
Dog@@ 5030
get 5030
Der@@ 5029
ote 5027
#1.42@@ 5027
vent@@ 5016
Pres@@ 5014
Sexy 5012
nu@@ 5010
ep 5006
use 5005
ES 5001
Cock 4994
Cle@@ 4991
ists 4991
Mill@@ 4987
Od@@ 4986
Mid@@ 4979
Viol@@ 4974
Una 4973
Grand@@ 4972
Snow 4969
Lee 4968
2/@@ 4968
Conn@@ 4967
Break 4967
esh@@ 4966
Tru@@ 4964
ali 4962
1986 4961
ible 4959
Takes 4955
Aud@@ 4955
Planet 4955
UN@@ 4953
aux 4951
Sat@@ 4951
Ul@@ 4951
ER 4951
Did 4950
ned 4950
ward 4949
Step@@ 4946
Bun@@ 4943
ition@@ 4943
aut@@ 4942
gra@@ 4940
Line 4939
ön@@ 4935
Sel@@ 4929
Ball 4928
iel 4925
London 4925
22@@ 4924
#3.3 4919
Cos@@ 4918
pri@@ 4917
uma 4909
Nik@@ 4907
High@@ 4906
bre@@ 4905
ume 4901
ody 4901
ide@@ 4900
Dre@@ 4897
Father 4891
lin@@ 4890
ium 4887
o! 4887
ust 4884
cas@@ 4882
Film@@ 4880
Coming 4872
a? 4871
Ast@@ 4866
Roo@@ 4864
#1.31@@ 4864
ost 4863
You're 4862
ett 4861
anna 4858
Something 4857
#9.2@@ 4857
2-@@ 4856
Ent@@ 4854
VS 4854
Tal@@ 4851
Beautiful 4847
Vic@@ 4846
Dun@@ 4842
Missing 4828
1984 4827
Clip: 4827
sa@@ 4826
#1.121 4823
Child 4820
#1.50@@ 4820
#16.1@@ 4820
Rise 4819
Broken 4817
Pi@@ 4816
FI@@ 4816
fil@@ 4815
Air@@ 4815
ima 4812
#1.122 4811
cor@@ 4808
Shadow 4808
5. 4808
ering 4804
Fear 4804
Master 4801
#3.4 4800
Between 4795
ives 4794
Texas 4791
Gal@@ 4786
Ultimate 4786
Paris 4785
hen 4784
ith@@ 4783
tro@@ 4778
Dick 4778
Friend@@ 4777
REACTION!! 4777
Episódio 4776
#1.123 4767
du@@ 4766
out@@ 4765
ues 4763
kon@@ 4762
Vol. 4762
es/@@ 4762
duc@@ 4757
National 4757
Hu@@ 4753
en? 4751
Fo@@ 4747
Kill@@ 4745
Comedy 4743
IS@@ 4740
#1.124 4739
Pot@@ 4737
100 4737
ür@@ 4737
3-@@ 4737
ein 4734
Wr@@ 4731
ely 4727
Fel@@ 4725
#1.125 4724
tis 4719
ger@@ 4719
rac@@ 4714
!? 4713
Stud@@ 4712
Ride 4706
Watch 4706
ect@@ 4705
Hope 4705
ental 4705
Mom 4705
ours 4701
É@@ 4699
Head 4698
ocks 4698
Lar@@ 4697
iki 4697
Tales 4693
O'@@ 4692
la@@ 4691
iri@@ 4690
Psych@@ 4689
Conc@@ 4687
RA@@ 4685
ties 4683
Rub@@ 4680
oria 4680
Cold 4677
ze@@ 4676
Ny@@ 4670
6. 4670
Kin@@ 4668
#2.11 4668
ret@@ 4665
Mut@@ 4664
Spring 4663
Lat@@ 4657
ff 4657
Bondage 4656
Worst 4652
4) 4650
Gh@@ 4648
ster@@ 4641
ies: 4639
¿@@ 4638
Sab@@ 4637
Hour 4636
7. 4630
mp@@ 4628
#1.126 4627
Mist@@ 4626
Richard 4624
Squ@@ 4624
ste 4623
Mountain 4619
Human 4611
OU@@ 4609
ages 4605
Eng@@ 4602
Change 4601
Princess 4600
emp@@ 4600
#3.5 4600
mas@@ 4598
Daughter 4596
#1.127 4595
iet@@ 4594
tern@@ 4589
yw@@ 4586
Need 4585
ied 4581
pu@@ 4578
Door 4575
#1.53@@ 4572
Devil 4570
Thing 4570
#1.128 4570
sel@@ 4569
4-@@ 4567
ed: 4567
gg@@ 4564
leg@@ 4563
Justice 4562
es! 4554
ones 4552
8. 4551
ati 4548
Mah@@ 4548
Sin@@ 4545
#1.129 4540
Coun@@ 4537
ais@@ 4534
Arm@@ 4534
ble@@ 4533
Mary 4531
Sy@@ 4530
Hotel 4529
él@@ 4526
Cul@@ 4523
tal@@ 4523
mon 4523
#1.130 4520
on: 4519
ie: 4517
Kid 4517
Dead@@ 4516
9/@@ 4515
aff@@ 4513
Hunt 4512
Does 4509
Tod@@ 4508
King@@ 4506
Dest@@ 4504
Hand 4501
Ash@@ 4496
Wolf 4493
Breaking 4490
House@@ 4489
Wie 4489
Kir@@ 4486
aru 4486
Pap@@ 4485
vol@@ 4479
Goo@@ 4479
ris@@ 4476
Bed@@ 4475
9. 4474
#2.12 4474
Angeles 4471
Holl@@ 4469
THE 4465
ope 4464
Morning 4464
ME@@ 4463
anda@@ 4461
Dinner 4459
Plan 4458
Every 4458
gar@@ 4454
Cum 4452
Spr@@ 4449
Temp@@ 4447
Na@@ 4447
o/@@ 4447
Paradise 4440
een 4436
#1.@@ 4431
Gor@@ 4429
#1.54@@ 4427
tri@@ 4426
ie's 4424
dad 4422
ather 4420
oor 4420
Ve@@ 4419
para 4417
#1.131 4417
tell@@ 4411
#1.132 4411
ching 4409
Mission 4407
esta 4406
gets 4403
Soul 4399
Ele@@ 4399
Brothers 4398
sm@@ 4396
back 4396
#3.6 4395
Steve 4393
agg@@ 4392
#1.133 4392
ers: 4390
1975 4390
PO@@ 4387
Ben 4381
ahr@@ 4379
#1.134 4379
col@@ 4376
ef 4366
Nar@@ 4365
ump@@ 4361
nyheter 4361
#1.135 4358
ter's 4355
1983 4355
aka 4354
tre 4351
Jon@@ 4350
thy 4350
Christ@@ 4348
rig@@ 4347
dic@@ 4341
ila 4341
Al 4339
eth 4332
Jac@@ 4331
Say 4331
13. 4330
1980 4328
ing! 4326
Dad@@ 4323
ao 4319
Lock@@ 4319
III 4318
dos 4317
Cel@@ 4316
Surviv@@ 4316
Ant@@ 4315
Some 4313
itch 4313
ams 4310
itz@@ 4308
Dur@@ 4308
ook 4308
#1.136 4308
Past 4306
Sou@@ 4306
Bound 4305
Sus@@ 4300
Mart@@ 4300
ush 4299
Royal 4297
1979 4295
Cab@@ 4294
College 4288
Cook@@ 4285
#1.137 4284
Around 4279
Santa 4278
igg@@ 4278
Es@@ 4275
ave 4273
4/@@ 4272
#1.55@@ 4271
Gun@@ 4269
Fish 4269
Greatest 4266
#1.138 4265
sur@@ 4264
Nightmare 4261
Pussy 4256
Curse 4252
Deadly 4248
ford 4247
Save 4247
Z 4242
¡@@ 4240
ck 4239
ok 4238
#1.139 4238
DI@@ 4236
ré@@ 4235
ria 4233
Hidden 4231
Alone 4227
mak@@ 4226
den@@ 4224
Blu@@ 4223
Jos@@ 4222
Kevin 4222
Hot@@ 4221
#1.140 4220
Search 4218
off@@ 4215
Times 4215
Friday 4208
#1.56@@ 4204
Tree 4203
yo 4202
Should 4200
in: 4200
Vill@@ 4199
*@@ 4197
Chance 4196
Law@@ 4187
Hunter 4181
vis@@ 4180
Ris@@ 4180
8: 4177
Were 4174
TS 4169
Sher@@ 4168
Crime 4167
5-@@ 4166
here 4165
Bell@@ 4162
reg@@ 4162
oder 4162
00@@ 4161
Thomas 4159
añ@@ 4158
#10.2@@ 4156
hl@@ 4155
#1.141 4155
Hell@@ 4154
1978 4154
Strange 4152
Trailer 4150
Small 4150
Sec@@ 4148
Esp@@ 4147
#1.142 4145
Drag@@ 4142
DA@@ 4142
ays 4140
Adam 4140
mal@@ 4139
Ner@@ 4138
#1.52@@ 4138
9: 4137
#19.@@ 4137
aves 4136
Bul@@ 4134
Fashion 4134
Action 4133
Lab@@ 4131
Max 4131
î@@ 4128
on's 4127
Dou@@ 4127
#1.143 4126
yer 4120
SE@@ 4120
Nam@@ 4119
Rich@@ 4113
tel 4112
9-@@ 4112
#2 4112
ank 4109
ub 4107
Swe@@ 4105
Beast 4105
Own 4105
Alex@@ 4103
zy 4102
#1.144 4101
Var@@ 4100
ape 4100
ia: 4099
Name 4098
aki 4096
18:50 4096
ple 4093
ial@@ 4093
Ow@@ 4089
Sem@@ 4086
Jones 4084
Mem@@ 4084
#1.145 4082
Pin@@ 4081
Quar@@ 4080
Annual 4080
Sister 4079
Garden 4079
Against 4077
ea 4076
Fan 4076
Moments 4076
ith 4074
ashi 4073
hr 4071
Child@@ 4070
Very 4068
oke 4066
Ku@@ 4066
NE@@ 4066
1976 4064
Commercial 4062
Kid@@ 4058
Haunted 4056
LA@@ 4054
Point 4052
Bir@@ 4051
1972 4051
Tel@@ 4050
k: 4050
Minecraft 4048
Johnny 4045
How@@ 4044
#1.146 4044
Review@@ 4041
Ten@@ 4040
ku@@ 4040
Forever 4038
top@@ 4034
berg 4033
#1.147 4031
(201@@ 4031
play 4029
ed! 4028
Thr@@ 4028
Bod@@ 4028
Vir@@ 4025
Martin 4024
ios 4023
Bear 4020
#1.148 4020
Schl@@ 4019
1970 4018
Oliv@@ 4016
Ka 4015
Law 4013
igo 4013
le: 4013
Surprise 4013
1977 4013
Volume 4012
Daniel 4009
part 4007
ins@@ 4005
ession 4004
ett@@ 4003
Hoo@@ 3998
Merc@@ 3997
Office 3997
of@@ 3997
Oh@@ 3994
Silent 3993
ater 3993
Mos@@ 3992
Meets 3991
#1.149 3991
ry@@ 3989
house 3987
i! 3983
Tan@@ 3982
Good@@ 3981
&@@ 3978
Mot@@ 3977
Mun@@ 3977
Brit@@ 3976
Loc@@ 3976
#2.13 3973
ento 3972
#1.150 3971
Heart@@ 3970
med 3968
yth@@ 3967
uro 3966
#1.57@@ 3966
Storm 3965
Lor@@ 3965
#1 3963
Wel@@ 3962
Gang@@ 3960
MA@@ 3959
Dom@@ 3958
Gi@@ 3958
Lad@@ 3957
dan 3957
Europ@@ 3953
ese 3950
Short 3948
acy 3948
8-@@ 3948
Heal@@ 3944
Hav@@ 3944
Science 3943
wer@@ 3942
ll 3939
Anim@@ 3938
Ep 3938
aa 3936
Age 3935
1967 3935
ación 3934
Aff@@ 3934
1974 3934
Wall@@ 3933
wo 3927
Don 3926
Pil@@ 3924
Ly@@ 3922
Sports 3919
amp 3914
Scre@@ 3913
#3.7 3912
Wild@@ 3910
Stri@@ 3903
HO@@ 3902
1982 3901
Now@@ 3900
Reunion 3900
Kiss 3897
Na 3894
Charl@@ 3893
Cit@@ 3890
10. 3889
Spec@@ 3888
Vi@@ 3885
Lin@@ 3883
Post@@ 3883
5) 3883
esc@@ 3881
Class 3881
eo 3879
Roll@@ 3878
ern 3878
Tat@@ 3878
Nothing 3876
Inc@@ 3875
Heroes 3874
Org@@ 3874
cht 3874
Produc@@ 3874
Train 3873
#17.1@@ 3872
11. 3870
aga 3866
ota 3863
Tran@@ 3863
Anna 3862
#1.3@@ 3860
Doll@@ 3857
s) 3855
!/@@ 3854
Lake 3853
Wat@@ 3852
Once 3850
ren@@ 3849
Ten 3848
ques 3848
#20.@@ 3848
sal@@ 3846
Bang@@ 3846
le, 3841
Football 3839
Giant 3839
Jason 3839
Tell 3837
eur 3835
Prince 3835
Rap@@ 3834
Charlie 3834
Pay@@ 3834
#1.151 3834
Ki 3829
Tam@@ 3828
1969 3828
Seven 3824
act@@ 3822
Doc@@ 3821
Smith 3821
ips 3821
Machine 3821
#1.152 3821
was 3820
Forest 3819
Con 3819
Kath@@ 3818
Sam 3817
Celebrity 3815
Comes 3814
uel 3813
Ur@@ 3813
Ill@@ 3811
Cer@@ 3811
ius 3811
Left 3811
12. 3810
Rav@@ 3809
ku 3808
int 3803
Animal 3803
t! 3803
Gift 3802
Together 3800
#1.153 3799
19:45 3798
imp@@ 3797
Mad 3796
dis@@ 3795
t-@@ 3794
emb@@ 3794
19. 3792
#4.1 3792
án 3791
Makes 3791
ester 3791
#1.58@@ 3791
Fro@@ 3783
ein@@ 3781
zo 3780
head 3779
hood 3778
oy@@ 3778
row 3777
iss 3774
Pupp@@ 3773
Happ@@ 3773
20. 3772
kin@@ 3770
Rad@@ 3769
#1.154 3769
Soc@@ 3768
Walk 3766
rup@@ 3764
1981 3764
Lib@@ 3762
Captain 3761
Light@@ 3761
Mess@@ 3760
Help 3760
ation: 3759
mal 3758
ven 3756
Pink 3756
Dav@@ 3755
#1.155 3753
Chicken 3752
18. 3746
Ell@@ 3745
ited 3745
Distriktsnyheter 3745
Une 3744
1973 3743
Make@@ 3742
ails 3740
Heat 3739
aan 3737
1971 3736
Band@@ 3735
Treasure 3735
Brown 3735
pet@@ 3732
án@@ 3731
Lies 3727
Rat@@ 3726
#3.8 3723
Media 3722
Tun@@ 3719
test 3719
Kit@@ 3718
cia 3717
Stone 3715
spec@@ 3713
Mik@@ 3713
Arch@@ 3713
Alex 3712
Østnytt 3710
Att@@ 3709
#1.59@@ 3708
ology 3706
#1.156 3705
Brun@@ 3702
Real@@ 3702
oy 3700
ter, 3697
omm@@ 3696
od 3696
15. 3690
Om@@ 3689
ular 3688
lu@@ 3687
ied@@ 3687
7-@@ 3687
mis@@ 3686
Coo@@ 3686
ord 3685
Brother 3684
har@@ 3682
oe 3680
off 3680
Rescue 3678
pour 3678
Ran@@ 3677
Stand@@ 3675
16. 3675
14. 3673
Big@@ 3672
Fol@@ 3671
wal@@ 3669
Head@@ 3665
ump 3663
Nav@@ 3661
Spirit 3661
Franc@@ 3659
Harry 3657
eck@@ 3656
Dad 3656
N°@@ 3654
Broth@@ 3653
eless 3652
Private 3650
kan@@ 3648
Was@@ 3645
ection 3645
#1.60@@ 3642
Vel@@ 3641
zen 3641
Utd 3641
iro@@ 3640
line 3639
Rog@@ 3639
Tab@@ 3638
Os@@ 3636
pres@@ 3635
3/@@ 3630
#1.157 3625
mag@@ 3624
#1.158 3624
ucks 3623
LA 3623
Who's 3621
Operation 3620
ii 3619
ás 3616
League 3615
pa 3615
ult@@ 3614
Down@@ 3614
Van 3613
t. 3612
Cand@@ 3611
Anniversary 3611
8/@@ 3611
Cann@@ 3609
Danc@@ 3608
ites 3606
on/@@ 3606
Gold@@ 3604
Ari@@ 3604
Orig@@ 3604
NO@@ 3603
Championship 3602
éc@@ 3601
Han@@ 3601
Stand 3598
3) 3598
Cup 3595
Ry@@ 3595
ment@@ 3594
Dol@@ 3592
Kur@@ 3592
ais 3590
ser 3590
oll 3589
ool 3588
Veg@@ 3588
23. 3588
#1.159 3587
Midnight 3586
och 3585
Bol@@ 3585
lands 3584
Lives 3583
ubl@@ 3582
MO@@ 3582
#1.160 3581
ac 3580
Fast 3575
Clar@@ 3571
Camp 3569
Fighting 3569
Six 3569
Spl@@ 3569
Kitchen 3568
nach 3567
Blues 3567
Hill 3564
Mak@@ 3563
21. 3562
AL 3562
Sound 3561
into 3561
fü@@ 3559
Maria 3556
#1.64@@ 3555
Imm@@ 3554
22. 3552
Cast 3551
own 3550
Mul@@ 3549
ér@@ 3547
ju@@ 3546
Direc@@ 3543
Bes@@ 3538
Mit@@ 3537
Canc@@ 3537
s. 3534
Jim 3532
ion: 3531
Cri@@ 3530
fre@@ 3529
orn@@ 3529
mas 3527
5/@@ 3526
az 3524
My@@ 3521
Legacy 3520
teen 3517
#1.120@@ 3517
tra 3516
18:40 3516
mi@@ 3514
Wants 3514
ats@@ 3512
Work@@ 3510
esh 3510
that 3507
ities 3506
Style 3506
China 3505
sich 3504
Loves 3503
tern 3503
Ken@@ 3501
Vegas 3501
#1.161 3501
Plan@@ 3499
Feat@@ 3499
Modern 3498
17. 3497
ires 3496
Az@@ 3495
Top@@ 3494
27. 3494
Nob@@ 3493
#1.63@@ 3493
Del 3492
Fab@@ 3491
World@@ 3491
Gol@@ 3488
tha 3488
ief@@ 3487
#21.@@ 3485
ister 3483
Americ@@ 3482
Jam@@ 3482
ional 3480
ald 3479
ign 3478
sey 3478
bo 3478
Social 3478
Box@@ 3477
Keep 3477
#1.68@@ 3476
Lis@@ 3475
Minutes 3475
#1.162 3475
#1.69@@ 3475
Hay@@ 3474
Carn@@ 3473
Fle@@ 3473
gre@@ 3472
Creat@@ 3472
ound 3469
199@@ 3468
je@@ 3465
cin@@ 3465
Fir@@ 3465
oms 3463
erg@@ 3462
û 3460
will 3459
Ot@@ 3458
about 3457
Finding 3457
Adv@@ 3456
Class@@ 3455
1st 3453
Valley 3453
1968 3453
#1.41@@ 3453
Max@@ 3452
#1.119@@ 3452
ball@@ 3448
#1.163 3448
Domin@@ 3446
eds 3439
Hur@@ 3439
Taste 3439
Tony 3438
ab 3437
dr@@ 3436
rie 3436
any 3432
Sarah 3432
Wom@@ 3430
Episo@@ 3430
#1.164 3429
Mam@@ 3427
mit@@ 3427
Ray 3425
ter: 3422
Deal 3422
Found 3422
#1.65@@ 3421
East 3418
er! 3415
#1.66@@ 3415
én@@ 3414
i/@@ 3414
Den 3412
sin 3411
Mi 3411
#1.165 3410
Lyn@@ 3409
Ton@@ 3409
1966 3409
esome 3408
ales 3406
acht 3405
#22.@@ 3404
Inf@@ 3403
ond 3402
ed, 3402
LIVE 3400
ASMR 3398
US 3397
Fish@@ 3396
Billy 3396
kai 3396
dge 3395
ders 3395
uki 3395
hel@@ 3393
ls 3389
icks 3389
jo@@ 3388
ean 3388
Gun 3385
28. 3385
pe 3381
Step 3381
pos@@ 3380
Training 3380
#1.67@@ 3380
tar@@ 3378
#1.166 3378
dans 3377
eman 3376
Bird 3376
)@@ 3376
Chicago 3375
25. 3374
Invisible 3373
agu@@ 3372
26. 3372
#1.70@@ 3372
tro 3370
24. 3370
Wood@@ 3368
ische 3368
ball 3367
#1.167 3367
Pow@@ 3363
ult 3362
Bow@@ 3362
1, 3361
t? 3359
Cin@@ 3358
kn@@ 3358
hat 3357
ther 3357
under@@ 3356
Give 3356
Long@@ 3353
Amazing 3352
the@@ 3351
Frank 3351
kin 3350
Castle 3349
Unc@@ 3347
#1.168 3343
Marc@@ 3341
Hall 3340
#2.14 3337
ras 3335
Expos@@ 3333
Eine 3331
ges 3329
Born 3328
tif@@ 3328
Jud@@ 3324
Easy 3323
#1.169 3322
Spar@@ 3321
Amb@@ 3320
komm@@ 3319
Reac@@ 3319
Sid@@ 3318
#23.@@ 3317
Hou@@ 3315
#1.170 3315
in, 3314
Reality 3313
dro@@ 3312
Dan 3307
Flor@@ 3305
S. 3305
Musical 3304
ges@@ 3304
06@@ 3304
tal 3303
bert 3302
achi 3302
Voice 3301
Valent@@ 3301
Chin@@ 3301
Moth@@ 3300
field 3298
tu 3298
CE@@ 3298
Weekend 3297
zen@@ 3295
Wrestling 3292
dal@@ 3289
ele 3289
Boy@@ 3289
John@@ 3288
Flight 3284
World's 3283
Ts@@ 3281
Pers@@ 3277
Wind 3275
Ring 3274
bs 3274
Model 3273
iano 3272
ogra@@ 3271
Knight 3270
Always 3269
bes@@ 3269
in's 3269
Us@@ 3269
#18.1@@ 3269
Il@@ 3265
icky 3265
inter@@ 3264
ør@@ 3264
Service 3262
Radio 3259
Nin@@ 3255
ét@@ 3254
gel@@ 3254
#1.171 3254
#3.9 3253
Police 3251
Goodbye 3251
School@@ 3250
Alien 3250
#1.172 3250
ov 3249
pas 3246
ends 3246
heit 3245
Tap@@ 3243
Pad@@ 3241
nat@@ 3241
Stranger 3238
Dangerous 3238
Rang@@ 3235
Highlights 3235
nov@@ 3234
pi@@ 3228
Dogs 3228
iner 3228
#1.173 3227
Ath@@ 3224
Pool 3223
samisk 3223
vie 3222
PS@@ 3222
Lucky 3220
Rand@@ 3219
uri 3217
Hil@@ 3213
Heaven 3211
Transfer 3211
ising 3210
Liebe 3210
burg 3209
ove 3208
Trial 3208
Band 3208
Silence 3208
ey@@ 3208
Oddasat 3208
#1.174 3205
Cass@@ 3204
Ga@@ 3203
Scene 3202
Kim 3201
ired 3200
Coc@@ 3200
Pag@@ 3198
Matt 3198
Sunday 3197
girl 3196
yst@@ 3195
wood 3194
II@@ 3191
Esc@@ 3189
cul@@ 3189
famil@@ 3189
Addic@@ 3189
ski 3187
Darkness 3186
Eat 3183
Ker@@ 3182
#1.175 3179
ident 3175
Blood@@ 3175
Cont@@ 3175
Pro 3174
var@@ 3173
Flying 3173
Haw@@ 3173
cho 3172
äl@@ 3172
Wol@@ 3171
Shot 3171
en! 3171
bus@@ 3171
#4.2 3170
ality 3168
Freedom 3167
pas@@ 3166
#2.15 3166
ui 3165
és@@ 3164
Force 3164
ija 3163
#11.2@@ 3163
That's 3160
Schw@@ 3160
Beh@@ 3160
Wall 3159
Oh 3159
hor@@ 3158
ss 3157
Dep@@ 3157
ador 3157
_@@ 3157
Caught 3156
Auditions 3156
IT@@ 3156
#1.62@@ 3156
Bay 3155
President 3154
Olymp@@ 3153
uri@@ 3152
Boss 3151
Set 3151
ár@@ 3150
Ryan 3149
#1.176 3148
Cross@@ 3147
Henry 3147
Music@@ 3145
pec@@ 3144
Spir@@ 3144
Port@@ 3144
go@@ 3143
Tim 3142
Zero 3142
BO@@ 3142
Chef 3140
Water@@ 3137
oma 3137
itu@@ 3136
cha 3135
sy 3134
Angels 3133
Expl@@ 3133
Cake 3133
Scott 3133
Exc@@ 3132
Sleep 3131
ws 3131
ania 3130
3.@@ 3130
Health 3130
#6@@ 3130
Ty@@ 3129
29. 3129
Brand@@ 3128
Pop 3128
ret 3127
Brian 3127
Jane 3126
fr@@ 3125
#1.177 3125
#1.178 3124
Fly 3123
light 3122
Eric 3122
Bolum 3122
set 3121
Farm 3120
Q 3120
idad 3119
aar 3119
Sis@@ 3118
Premiere 3118
ull 3117
Vik@@ 3114
icht 3113
AK@@ 3113
#3.10 3113
aking 3111
Dawn 3109
vor 3109
30. 3106
Playing 3104
Leben 3104
li 3104
Documentary 3103
Dancing 3101
aks 3101
Bowl 3100
#1.179 3100
Bride 3099
Bay@@ 3099
Tas@@ 3098
Way@@ 3096
Lesbian 3095
Tied 3093
y) 3092
ers, 3087
Faith 3086
osa 3085
Taylor 3085
Act 3084
Histor@@ 3084
hal@@ 3083
Fantasy 3082
form@@ 3082
ón@@ 3082
ator@@ 3080
02@@ 3080
#1.180 3080
nicht 3079
gers 3079
dl@@ 3078
Guide 3078
Control 3076
#4.3 3076
isa 3075
#1.73@@ 3075
tt 3074
ough@@ 3073
han 3071
bel@@ 3070
Fox 3070
enti@@ 3069
GO@@ 3069
ados 3066
ize 3065
#12.2@@ 3065
ud 3064
Mi@@ 3064
Could 3061
eng 3061
we 3061
an/@@ 3061
work 3060
Jungle 3059
Wish 3059
rey 3058
Sisters 3058
Frank@@ 3058
Fucking 3057
International 3056
Ey@@ 3055
ames 3053
eck 3051
Find 3051
Het 3049
Horse 3048
wn 3047
tet 3046
Ref@@ 3045
Alb@@ 3044
ader 3042
Million 3042
ency 3041
Nick 3041
pol@@ 3040
Edge 3039
ative 3038
UR@@ 3038
Brain 3036
Fi@@ 3035
Vampire 3035
Zombie 3035
esa 3034
anie 3034
Extreme 3034
1965 3034
Shin@@ 3032
Third 3031
Prof@@ 3031
Lam@@ 3031
Ok@@ 3030
awa 3030
#4.4 3030
Rain 3029
Wet 3027
Cov@@ 3022
Á@@ 3021
Looking 3020
Dear 3020
0: 3020
ben 3019
amor 3019
Tu@@ 3017
'The 3017
4.@@ 3017
Raj@@ 3016
Romance 3015
sw@@ 3015
#1.181 3013
Meeting 3012
Them 3012
er? 3011
Da 3007
Pizza 3006
Kings 3005
ered 3004
Kingdom 3002
Snow@@ 2999
kom@@ 2999
iko 2999
kar@@ 2998
e... 2997
#1.182 2996
Hang@@ 2994
e. 2993
(200@@ 2993
Scot@@ 2991
Florida 2991
Ide@@ 2991
ells 2990
ras@@ 2988
iting 2988
Da@@ 2988
po 2988
Washington 2986
k, 2986
IC@@ 2986
Sleep@@ 2985
Net@@ 2985
Lunchtime 2985
er-@@ 2984
Test@@ 2984
ING@@ 2984
Quest 2983
met@@ 2983
6-@@ 2983
Hug@@ 2982
ischen 2981
#1.183 2980
Cub@@ 2978
Every@@ 2978
Fut@@ 2977
View 2976
Aut@@ 2975
itz 2975
fol@@ 2975
Gala 2975
Close 2974
his 2974
Monsters 2973
Memories 2971
Shadows 2971
Forg@@ 2971
Beg@@ 2971
sex@@ 2971
Dal@@ 2970
Ö@@ 2970
Hands 2969
#1.184 2968
Cut 2966
vi 2966
Mark@@ 2964
abb@@ 2964
Nach@@ 2964
Really 2964
2, 2962
Set@@ 2961
ift 2961
#1.185 2960
#2.16 2959
Pretty 2957
side 2957
Blonde 2956
EP@@ 2956
Hole 2955
Please 2955
aku@@ 2954
Put@@ 2953
We're 2950
Ay@@ 2950
Cav@@ 2949
Tot@@ 2949
oth@@ 2948
Que@@ 2948
Far 2947
Moment 2946
aster 2945
0s 2943
val@@ 2941
Returns 2938
Bomb@@ 2937
af 2937
FC 2937
Jimmy 2935
Try 2935
tan@@ 2934
inen 2934
ids 2932
Tiny 2932
Hen@@ 2926
del@@ 2925
ances 2925
California 2924
SP@@ 2924
#4.5 2924
Ready 2921
Desert 2920
Guil@@ 2919
ione 2918
qui 2915
Jeff 2915
#1.186 2914
Crisis 2912
TV@@ 2911
Sens@@ 2909
8) 2909
Pran@@ 2908
Naughty 2908
Concert 2906
illy 2906
Compl@@ 2906
Nas@@ 2905
vida 2904
There's 2904
British 2903
#24.@@ 2902
Letter 2901
Hab@@ 2900
Naked 2900
iste 2898
ario 2898
Ara@@ 2898
Got@@ 2898
ces 2897
Match@@ 2896
cast 2896
#1.187 2896
France 2895
Public 2895
Um@@ 2893
Walking 2892
#1.51@@ 2892
ision 2891
olu@@ 2889
sur 2887
Affair 2887
Hop@@ 2887
Daddy 2886
Contin@@ 2885
ression 2885
Chris@@ 2885
gi@@ 2884
AB@@ 2884
ners 2883
te: 2882
#1.188 2882
Woke 2880
son/@@ 2880
och@@ 2879
Im 2879
ule 2878
hol@@ 2877
Stay 2877
Grace 2875
#1.189 2874
Marriage 2873
ST 2872
Stu@@ 2870
Pod@@ 2870
uke 2867
don 2867
Squir@@ 2866
#1.72@@ 2866
#1.190 2865
Whis@@ 2864
Clim@@ 2864
Coast 2863
ham@@ 2862
Gel@@ 2862
ience 2861
com 2859
Hit@@ 2858
Casting 2858
IS 2858
Rest@@ 2857
Rol@@ 2856
fa@@ 2855
Arc@@ 2854
Ron@@ 2853
Contr@@ 2852
ende 2849
aze 2848
oda 2847
Berlin 2846
Mig@@ 2845
Jan 2845
Wind@@ 2845
Celebr@@ 2845
Year@@ 2842
iones 2840
EX@@ 2840
fri@@ 2839
kk@@ 2839
Mass@@ 2839
le's 2838
Nic@@ 2838
One@@ 2838
Shak@@ 2838
7) 2838
iff 2837
tru@@ 2837
Japan 2837
ie, 2836
zum 2836
Kun@@ 2836
fall 2835
Syn@@ 2834
ruc@@ 2833
ova 2833
Care 2833
new 2832
#1.192 2832
Marvel 2831
Sain@@ 2830
Him 2830
Aus@@ 2830
Vac@@ 2830
Comic 2830
6) 2830
Serv@@ 2829
Hate 2829
o? 2829
Words 2829
bro@@ 2828
#4.6 2828
#1.191 2828
,000 2827
ouse 2827
zi 2827
9) 2827
Gay 2825
Let@@ 2825
olly 2823
Foot@@ 2823
Cock@@ 2823
Bar 2822
Lak@@ 2822
Prix 2821
Hos@@ 2820
TR@@ 2820
ower 2819
Va@@ 2816
Peace 2816
ät@@ 2816
#1.193 2816
Frankenstein 2815
yu 2815
Beginning 2815
Too@@ 2813
Hit 2813
Choice 2812
200 2812
Generation 2810
Nation 2809
show 2809
gn@@ 2808
#1.194 2808
ike 2807
eer 2806
Shop 2805
Det@@ 2805
uring 2804
Ein@@ 2804
Rou@@ 2803
Episodio 2803
Lord 2802
anza 2801
dle 2798
#1.195 2798
Ges@@ 2797
Tig@@ 2796
America's 2796
Ah@@ 2796
NBA 2796
cel@@ 2795
Ale@@ 2794
or, 2793
Hog@@ 2793
Log@@ 2793
Fred@@ 2793
Clou@@ 2792
#20.1@@ 2792
so@@ 2790
schl@@ 2790
ug 2788
sz@@ 2787
bru@@ 2787
vy 2786
Brow@@ 2785
asha 2785
Fur@@ 2785
't 2784
gy 2782
Eag@@ 2781
Kim@@ 2781
Co-@@ 2780
bon@@ 2779
Bob@@ 2779
is, 2779
Buil@@ 2778
Remember 2777
Shad@@ 2777
Pel@@ 2777
Liber@@ 2776
Trump@@ 2776
#1.74@@ 2776
Shel@@ 2774
VER@@ 2773
Fem@@ 2771
Diego 2770
olo 2770
#19.1@@ 2770
Lan@@ 2769
MILF 2769
Chang@@ 2768
Toy 2768
ism@@ 2768
ences 2768
oj@@ 2768
Portrait 2767
iest 2767
Gang 2766
hab@@ 2766
Screen 2765
rif@@ 2765
Je 2764
Nature 2764
Demon 2764
Death@@ 2764
Hall@@ 2763
unt 2762
tle@@ 2761
#25.@@ 2761
ia's 2760
Fron@@ 2759
Intro@@ 2759
7.@@ 2759
French 2757
amil@@ 2757
Magn@@ 2757
10/@@ 2757
A-@@ 2756
your 2756
#1.196 2756
Pac@@ 2755
7/@@ 2755
fel@@ 2753
Marie 2753
duction 2753
Louis 2752
Dating 2752
#2.17 2752
mann 2750
Cath@@ 2750
tied 2750
10-@@ 2750
Oper@@ 2749
Memory 2749
tion: 2749
fer 2748
Mask 2747
Thir@@ 2746
Mic@@ 2746
Hair 2746
A: 2746
ago 2745
Ped@@ 2745
Taking 2744
Capítulo 2744
ece 2743
sv@@ 2743
Aqu@@ 2743
nit@@ 2742
Anti@@ 2741
Ausgabe 2741
#1.197 2741
Investig@@ 2740
uss 2739
Nights 2739
Sak@@ 2739
Cry 2738
Wolf@@ 2738
ON 2738
orn 2737
(Part 2737
Price 2736
Invasion 2736
ving 2736
atsu 2736
asm@@ 2735
ë@@ 2735
William 2733
Many 2732
Miami 2732
#1.198 2731
Pig@@ 2730
Const@@ 2728
s-@@ 2728
Animals 2727
ück 2727
t/@@ 2727
auf@@ 2726
Andy 2726
Roll 2726
Fort@@ 2724
Teil 2724
Emp@@ 2724
Hours 2723
see 2723
Bang 2723
is: 2722
"The 2722
oot 2721
Hearts 2720
#5.1 2720
Saf@@ 2719
Zone 2717
ining 2715
ples 2715
Kelly 2714
Kind 2713
red@@ 2713
enny 2712
Master@@ 2710
nis 2710
Reaction 2709
ty@@ 2707
See@@ 2707
aker 2706
orc@@ 2706
Paul@@ 2706
Egg@@ 2705
Songs 2704
ury 2704
away 2704
Lil@@ 2703
Harv@@ 2703
Diamond 2702
Teach@@ 2701
#1.199 2701
sem@@ 2700
Bik@@ 2700
Iron 2699
sto@@ 2699
Dave 2697
Ninja 2697
don@@ 2696
ichi 2696
Jok@@ 2694
X-@@ 2693
Assass@@ 2693
ardo 2692
Donald 2692
Moving 2691
gie 2689
film 2689
#1.200 2689
After@@ 2687
Princ@@ 2687
si@@ 2686
erte 2686
Fern@@ 2686
edy 2685
Kitty 2684
Cup@@ 2683
Trap 2683
umm@@ 2683
Sonic 2683
Alice 2681
BB@@ 2681
#2.18 2681
Stage 2680
Rag@@ 2679
eine 2679
bra@@ 2678
Die@@ 2678
al, 2678
Bac@@ 2677
Mand@@ 2677
dec@@ 2677
oro 2676
Fucked 2675
#3.11 2675
Mys@@ 2674
ipe 2674
Sin 2674
pel@@ 2673
Mé@@ 2672
ing/@@ 2672
XX@@ 2672
ief 2671
xi 2671
tery 2670
Glass 2669
Trou@@ 2666
Touch 2665
Mob@@ 2665
bri@@ 2664
5.@@ 2662
elly 2658
Gard@@ 2656
Cream 2656
Se 2655
å 2655
Think 2655
Drive 2653
Sant@@ 2652
ility 2652
on-@@ 2651
bab@@ 2651
HA@@ 2649
cle 2648
ahl@@ 2647
fu@@ 2646
tered 2646
#13.2@@ 2646
Call@@ 2645
Bridge 2641
Fail@@ 2641
Conversation 2641
itor 2640
Beat 2640
otte 2639
Guys 2639
life 2639
Man's 2637
Revolution 2636
star 2635
Von 2634
as, 2634
Building 2632
nen 2632
Came 2631
stra@@ 2631
ander@@ 2630
Vide@@ 2630
Gy@@ 2629
TO@@ 2629
ols 2628
Experience 2628
Hunting 2627
England 2626
-Up 2626
Earth@@ 2625
Self@@ 2625
Fake 2625
dam 2624
uel@@ 2624
Drama 2624
tom 2623
iti 2623
ider 2622
ax@@ 2622
Russ@@ 2619
Fif@@ 2618
Win 2618
Ada@@ 2618
Clean@@ 2617
#2.19 2617
oug@@ 2616
Code 2615
Rum@@ 2615
eller 2613
#1.201 2613
enda 2612
w/ 2612
ought 2610
Daniel@@ 2609
Lisa 2608
Sad@@ 2607
ket 2606
Arizona 2605
q 2605
Bed 2605
Academy 2604
Rain@@ 2602
Soph@@ 2602
#7@@ 2602
Guard@@ 2601
est: 2601
11-@@ 2601
Innoc@@ 2600
Explor@@ 2599
orts 2599
oto 2598
Charles 2595
Laugh@@ 2595
Maj@@ 2595
#1.202 2595
mel@@ 2594
Artist 2594
cou@@ 2592
Tou@@ 2591
Didn't 2591
#3.12 2588
Him@@ 2585
has 2585
Countdown 2585
iri 2583
Id@@ 2582
Must 2582
Danger 2582
ched 2582
Talks 2582
#1.203 2582
Hat@@ 2580
Running 2580
Tang@@ 2579
Prem@@ 2579
These 2578
Tenn@@ 2578
AD@@ 2578
Pok@@ 2576
Chocolate 2576
Laura 2576
Church 2575
ished 2575
Turn 2574
Fit@@ 2574
Eve 2573
Wit@@ 2573
Joy 2573
Talking 2573
Tournament 2573
DC 2573
stre@@ 2572
J. 2572
sche 2572
Auf 2572
Get@@ 2571
Jay 2571
#2.20 2571
ça 2570
SI@@ 2570
#1.204 2568
Gall@@ 2567
ray 2566
Sig@@ 2566
Natural 2566
Dro@@ 2565
uru 2565
Sep@@ 2564
Trust 2563
Tomorrow 2563
DO@@ 2563
vo 2562
Imag@@ 2561
ices 2561
NA 2560
dem@@ 2559
n, 2559
Spy 2558
Chr@@ 2558
#4.7 2556
iens 2555
erto 2555
essa 2555
d's 2554
met 2554
Paper 2553
Mont@@ 2552
Poss@@ 2552
11/@@ 2552
#1.205 2552
ingen 2550
Problem 2548
Ni@@ 2547
Moon@@ 2546
Stal@@ 2546
Rich 2546
dar 2546
Sne@@ 2545
Eth@@ 2545
Austral@@ 2545
Killing 2544
Parad@@ 2544
#26.@@ 2544
Au@@ 2543
Kap@@ 2541
Battle@@ 2540
Anthony 2538
Creep@@ 2537
aw 2536
Classic 2535
#1.77@@ 2535
#1.76@@ 2535
Cour@@ 2534
Bath@@ 2534
Trail 2534
viv@@ 2533
Green@@ 2532
Wri@@ 2531
#1.206 2531
Eva 2530
gegen 2530
Witch 2529
Fair 2528
Funny 2528
#1.75@@ 2528
att 2527
iga 2526
Diary 2526
Mirror 2525
12:00 2525
Camera 2524
Vs 2524
#1.207 2524
USA 2523
Birds 2522
own@@ 2521
bles 2519
Camer@@ 2517
umi 2517
Bag@@ 2516
oz@@ 2516
Leb@@ 2516
Gon@@ 2515
Cool 2515
197@@ 2515
#1.208 2515
Faces 2514
ming 2513
Sau@@ 2512
Pain 2512
this 2512
Murder@@ 2509
ungen 2509
Waiting 2508
icy 2508
ades 2507
BL@@ 2507
Rachel 2506
alla 2506
Travel 2505
Word 2505
uer 2505
oshi 2505
#21.1@@ 2505
India 2504
rin 2504
Feet 2504
101 2504
Ray@@ 2503
avec 2502
Much 2499
.A. 2498
8.@@ 2498
Mein 2496
Meg@@ 2495
#1.209 2495
hist@@ 2494
Pet 2494
2020: 2494
tles 2493
Bil@@ 2493
Phantom 2493
Australia 2492
Nice 2492
Picture 2491
Lind@@ 2491
Cinema 2490
Bern@@ 2489
Smok@@ 2488
Fath@@ 2488
Half 2488
Special: 2488
Tokyo 2487
Jesus 2487
#1.78@@ 2486
Jessica 2484
ects 2482
Woods 2481
#1.210 2481
ils 2480
Films 2480
Read@@ 2479
Jew@@ 2479
Crow@@ 2479
act 2479
can@@ 2478
han@@ 2478
#1.79@@ 2478
te, 2476
ands 2476
Atl@@ 2476
Coffee 2475
unk@@ 2474
CK@@ 2474
ries 2473
Johnson 2473
Bud@@ 2473
eru 2473
ý 2473
12/@@ 2473
Six@@ 2472
av 2472
Opp@@ 2472
Massage 2472
Ital@@ 2467
enk@@ 2467
Collection 2466
ican 2465
Christian 2465
FO@@ 2465
Solo 2463
CA@@ 2463
boy 2461
Africa 2461
Universe 2461
Que 2461
Within 2460
ci 2460
Jeff@@ 2458
Cons@@ 2458
Dagsnytt 2457
1964 2455
Pon@@ 2454
ück@@ 2454
Hann@@ 2454
Would 2453
Kri@@ 2453
anne 2452
Amaz@@ 2452
TED 2452
til 2451
Caf@@ 2451
#4.8 2451
ram@@ 2450
ills 2450
Naz@@ 2450
Sac@@ 2449
17:00 2449
Andre@@ 2448
Happened 2448
din@@ 2446
Leave 2444
ño 2443
Mol@@ 2443
While 2442
Trav@@ 2442
Hard@@ 2442
9.@@ 2442
#1.211 2442
Mama 2441
3, 2439
Cooking 2439
Destro@@ 2438
omi 2438
ks@@ 2437
ager 2437
Rising 2436
pt 2435
Memor@@ 2435
GE@@ 2434
II: 2433
Favorite 2433
Broad@@ 2433
25@@ 2433
Start 2432
Adri@@ 2429
mod@@ 2428
Madness 2427
eg 2427
Table 2426
Trag@@ 2425
Supp@@ 2425
Culture 2425
#1.212 2425
Crit@@ 2424
enf@@ 2423
4, 2422
Teacher 2418
Detective 2418
Pho@@ 2418
#1.214 2418
dre@@ 2417
Porn 2417
#1.213 2417
Francisco 2415
Bron@@ 2415
ava 2415
Stephen 2415
Cho@@ 2414
atic 2414
Tut@@ 2414
cr@@ 2413
Cross 2413
Seas@@ 2413
Chaos 2413
encia 2411
Speed 2411
Spider-@@ 2411
1.1@@ 2411
Gabri@@ 2410
GH@@ 2410
Buck@@ 2409
et: 2409
Asian 2409
Tick@@ 2407
gs 2407
yu@@ 2407
Extra@@ 2406
a. 2406
Catch 2405
ded 2405
Dinos@@ 2405
ois 2404
(The 2402
#1.215 2402
ior 2398
iche 2397
Robot 2396
str@@ 2395
Number 2395
Feeding 2394
Phone 2392
#1.216 2391
pal@@ 2389
öl@@ 2389
town 2389
8.1@@ 2389
igan 2386
eon 2385
% 2385
Williams 2384
Tour@@ 2382
Bah@@ 2382
amour 2381
Jennifer 2381
rel@@ 2381
Mou@@ 2380
Jackson 2380
elling 2379
#1.217 2379
Fresh 2378
Company 2378
Equ@@ 2378
bei 2378
Bou@@ 2377
Josh 2377
pt@@ 2377
Brig@@ 2377
ured 2377
12-@@ 2377
onds 2376
Bit@@ 2376
serv@@ 2374
NFL 2374
ine@@ 2373
Web@@ 2373
Protec@@ 2372
inning 2372
Liz@@ 2372
Ear@@ 2372
SO@@ 2372
Carol@@ 2371
Vl@@ 2369
ing? 2369
Chat 2369
guer@@ 2368
ense 2366
or's 2366
ng 2366
#1.218 2366
Skin 2364
Move 2364
#22.1@@ 2364
Eff@@ 2363
apol@@ 2363
Thanksgiving 2363
#1.80@@ 2363
Biden 2363
Tiger 2362
Disne@@ 2362
Yor@@ 2361
Candy 2361
ged 2361
Rules 2361
BE@@ 2361
Among 2360
ingo 2359
NY@@ 2357
1.2@@ 2357
Mex@@ 2356
ob 2356
Job@@ 2356
Py@@ 2355
Holy 2355
26@@ 2355
Crystal 2354
Kle@@ 2353
Amor 2353
aine 2353
Circus 2352
Dod@@ 2352
Host@@ 2351
usion 2351
Tech 2351
#1.219 2351
Pick@@ 2350
#23.1@@ 2350
yl 2349
IV 2348
#1.220 2348
Rob 2347
100@@ 2347
ia, 2346
Foot 2345
Hair@@ 2345
Hill@@ 2345
bound 2345
IR@@ 2345
ner@@ 2344
I'll 2344
idence 2343
Blow@@ 2342
ington 2341
tors 2340
Silver 2340
Leon@@ 2339
ube 2339
Daily 2338
fal@@ 2337
Fig@@ 2337
Sign@@ 2336
Kay@@ 2336
'est 2336
Interview@@ 2336
wird 2335
x: 2335
kan 2334
Ladies 2333
ises 2333
dai 2333
man: 2333
Eating 2332
Today 2331
Shir@@ 2330
ly@@ 2330
rap@@ 2330
Metal 2328
Shows 2327
ops 2326
Clau@@ 2325
org@@ 2324
med@@ 2323
ending 2323
Actor 2322
:30 2322
nes 2321
Election 2321
#1.221 2321
Bus 2320
het 2317
dig@@ 2316
Sv@@ 2315
#2.3@@ 2314
pher 2313
Keep@@ 2313
ox 2313
Web 2312
Batman 2312
Unl@@ 2311
Phil@@ 2310
Lev@@ 2310
Road@@ 2310
Geor@@ 2310
Spac@@ 2310
Epic 2310
Channel 2309
Wis@@ 2308
kers 2308
#1.223 2307
Ic@@ 2306
tian 2305
esp@@ 2305
#1.222 2305
2nd 2303
ets@@ 2303
ander 2302
#2.21 2302
Nur@@ 2301
Rud@@ 2301
amor@@ 2300
Forgotten 2300
pat@@ 2300
Pt. 2299
Mr 2299
IN 2299
iles 2298
Pack@@ 2298
eral 2297
Ye@@ 2297
ushi 2297
sy@@ 2296
#1.224 2296
Bug@@ 2295
Ble@@ 2295
Univers@@ 2294
Gru@@ 2294
ient 2294
Legends 2293
Vacation 2292
Requ@@ 2292
Help@@ 2291
ections 2291
uv@@ 2290
Tea 2288
Passion 2288
FA@@ 2288
#15.2@@ 2288
Husband 2287
Tits 2287
#1.225 2287
Chinese 2286
Alive 2286
ban 2286
Matter 2285
#14.2@@ 2284
Anne 2283
itt@@ 2283
dom@@ 2282
fia 2282
#3.13 2282
Wings 2281
White@@ 2281
Lewis 2280
ined 2279
Rainbow 2279
Agent 2278
pass@@ 2278
gro@@ 2277
hom@@ 2277
Kenn@@ 2277
Sper@@ 2277
Dim@@ 2276
rik@@ 2276
can 2275
#1.226 2275
Jay@@ 2274
Mexico 2273
n't 2273
en/@@ 2272
rio 2271
oom 2271
TER 2271
#2.22 2269
Visit 2268
ruction 2268
#1.85@@ 2268
Had 2267
Patri@@ 2265
Din@@ 2265
Been 2265
#1.227 2265
eme 2264
198@@ 2264
Kate 2263
Susp@@ 2263
#1.86@@ 2263
#1.228 2263
ache 2262
Studio 2262
Lot@@ 2262
Bobby 2262
Andrew 2261
raft 2261
aries 2260
WWE 2260
Russian 2259
Chase 2258
Museum 2258
Ess@@ 2258
#1.84@@ 2258
e" 2258
vous 2257
Hear@@ 2257
ña 2256
Uncle 2256
Court 2256
Block 2256
Braz@@ 2256
inking 2255
olf 2254
d! 2254
Unknown 2253
Horny 2253
S! 2253
dam@@ 2252
iation 2252
es? 2252
Fat 2251
Wars: 2251
rou@@ 2249
Boston 2249
fe 2249
Crash 2249
Say@@ 2249
Lesson 2248
lad@@ 2248
Well 2247
Biggest 2247
right 2247
#1.230 2247
uen 2246
Shark 2246
#1.229 2246
Presid@@ 2243
Ori@@ 2243
Mars 2243
Hyp@@ 2242
Snake 2242
ech 2242
Girlfriend 2242
ête 2240
Order 2239
ital 2238
ships 2238
ved 2238
Du 2237
aving 2236
Circle 2236
Enemy 2236
Then 2235
ized 2234
phy 2234
Natal@@ 2234
Patrick 2234
vin 2233
Carolina 2233
Mother's 2232
#1.231 2231
Elizabeth 2230
Kom@@ 2230
Kol@@ 2230
Danny 2230
or: 2229
â 2229
Ghosts 2228
Ed 2228
abe 2228
Obs@@ 2227
Mysterious 2226
sn@@ 2226
Zel@@ 2226
#1.232 2226
son, 2225
Infin@@ 2224
Ach@@ 2223
#5.2 2223
Ep. 2222
Even 2221
#27.@@ 2221
Says 2219
rors 2219
Working 2217
Ero@@ 2217
Proj@@ 2217
#1.83@@ 2217
Wid@@ 2216
bi@@ 2215
nes@@ 2215
#1.233 2215
Etern@@ 2214
Anal@@ 2212
Eu@@ 2211
09@@ 2211
ening 2210
#4.9 2210
ème 2209
Monkey 2209
Champion@@ 2209
Birth 2208
Kas@@ 2208
Cob@@ 2206
Less 2206
West@@ 2206
hum@@ 2204
iden 2203
Brooklyn 2203
Youth 2203
Jean 2203
aming 2203
WW@@ 2203
Jon 2202
in-@@ 2201
Chap@@ 2201
Wonder 2201
HE@@ 2201
#1.234 2201
Ric@@ 2200
Foll@@ 2200
Tod 2200
ail 2200
ua 2199
SA@@ 2199
verse 2198
ple@@ 2197
Fans 2197
ann 2196
elf 2195
#1.235 2194
#5.3 2193
Pear@@ 2192
Glory 2192
Key 2192
Burn@@ 2192
box 2192
Cheese 2191
Paran@@ 2191
Kong 2190
Southern 2190
Busty 2190
Pir@@ 2189
Village 2188
etta 2188
oop@@ 2187
Apple 2187
Challeng@@ 2187
Ways 2186
#2.23 2186
yan 2185
Ri@@ 2184
wing 2184
dor@@ 2184
ange 2183
#24.1@@ 2183
d/@@ 2182
#1.87@@ 2182
#1.236 2182
Comed@@ 2181
MP@@ 2181
Boun@@ 2179
acc@@ 2178
final 2175
Relation@@ 2175
Gener@@ 2174
Therapy 2173
ín 2171
D. 2171
?/@@ 2171
Flash 2170
Saving 2170
Clean 2170
Upon 2169
Miracle 2168
anz@@ 2168
#1.237 2168
I: 2166
dag 2166
Wer 2166
eback 2165
Warriors 2165
Actor@@ 2164
win 2164
as: 2163
Auth@@ 2163
.C. 2163
Path@@ 2162
if 2162
Self 2162
Transform@@ 2161
via 2161
cer 2161
Jr. 2161
Fox@@ 2161
Lag@@ 2161
Disaster 2160
#1.238 2160
Cut@@ 2158
Killed 2158
WA@@ 2158
dia 2157
Mang@@ 2156
airs 2156
Roy@@ 2156
tes@@ 2155
Arn@@ 2154
Dracula 2154
Week@@ 2153
Celebration 2152
nam@@ 2151
Morgan 2151
Lo 2151
#5.4 2151
õ@@ 2150
Larry 2150
#1.240 2150
eption 2149
BBC 2149
Prison 2148
#1.239 2148
Pep@@ 2147
t's 2147
Zw@@ 2147
lin 2146
Sugar 2146
.. 2146
gir@@ 2146
Meat 2146
Survival 2146
Safe 2145
Final@@ 2145
enger 2144
You'@@ 2144
X: 2144
Jerry 2143
ount 2142
uda 2142
jin 2142
Alan 2142
Lieb@@ 2141
Anth@@ 2140
augh@@ 2139
Burning 2138
ema 2138
Kiss@@ 2138
Director 2137
e' 2137
Stan@@ 2137
Jug@@ 2136
Jordan 2136
wir 2136
#8@@ 2136
Mega 2136
Lovers 2135
Fore@@ 2135
Isab@@ 2135
della 2135
#2.24 2135
Gil@@ 2133
itive 2133
Nel@@ 2133
Deutschland 2133
wat@@ 2132
Destiny 2131
in/@@ 2130
ides 2129
Breakfast 2129
erie 2129
kh@@ 2129
Station 2128
Wake 2128
Pie 2124
Surpr@@ 2124
Sle@@ 2123
#1.61@@ 2123
#1.242 2123
Carto@@ 2122
oni 2122
#1.241 2122
Theatre 2121
rick 2121
mun@@ 2121
Hawai@@ 2121
Canada 2121
rious 2120
#1.243 2120
Flower 2119
Mouse 2119
Vor@@ 2119
wh@@ 2119
Joh@@ 2119
job 2118
Ask 2117
Pride 2116
Couple 2116
Tape 2115
bie 2115
Unt@@ 2115
uka 2115
Western 2114
0-@@ 2114
Worlds 2114
9.1@@ 2114
#1.88@@ 2114
Reveal@@ 2113
#1.244 2113
Cham@@ 2112
mil@@ 2112
Minute 2112
Lit@@ 2112
Doll 2111
ging 2111
iction 2111
Internet 2111
D! 2111
nel 2110
cal@@ 2110
lia 2110
Robin 2108
tier 2107
Rul@@ 2107
DE 2107
#1.245 2107
Color 2106
illes 2105
Phoenix 2104
Mine 2104
ement@@ 2103
oku@@ 2103
Wonder@@ 2102
sei 2102
Finals 2102
Aug@@ 2101
Foo@@ 2101
ear@@ 2101
9.2@@ 2101
Cher@@ 2099
Answ@@ 2099
Cop 2098
ucht 2098
Emily 2097
ration 2097
tig@@ 2096
,@@ 2096
Coron@@ 2095
#4.10 2094
#1.246 2094
#3 2093
Ich 2092
dy's 2091
Wood 2091
Has@@ 2091
D'@@ 2091
rom@@ 2090
Wer@@ 2089
Global 2089
yle 2088
hn@@ 2088
ender 2087
Hello 2087
All-@@ 2085
Wiz@@ 2084
Legend@@ 2084
Simul@@ 2083
Fas@@ 2083
ication 2083
ounds 2082
#1.247 2082
Lik@@ 2080
play@@ 2080
Ancient 2079
.O.@@ 2078
yt@@ 2077
itsu 2077
ror@@ 2077
#1.82@@ 2077
aje 2076
Fucks 2076
Round@@ 2075
#1.248 2075
Cow@@ 2074
Winn@@ 2074
Ana 2073
Showdown 2073
ello 2072
Fantas@@ 2072
Champions 2072
Mick@@ 2070
Rick 2070
Devil's 2069
schaft 2068
os, 2068
Update 2068
#2.25 2068
Parade 2067
led 2067
Ocean 2067
#5.5 2067
Empire 2066
Fever 2066
eid@@ 2066
sor@@ 2065
Begins 2065
iev@@ 2065
Questions 2065
`s 2065
Believe 2064
#1.249 2063
#1.250 2063
Conqu@@ 2062
Mouth 2062
Chronicles 2062
ACK@@ 2061
Mrs. 2058
è 2058
inky 2057
oned 2056
Tes@@ 2056
S.@@ 2056
Collec@@ 2056
Jonathan 2056
DS 2055
ombre 2054
Know@@ 2054
Cost@@ 2054
4th 2054
itation 2053
Si@@ 2052
oph@@ 2052
face 2052
Teenage 2052
ö 2050
Parody 2050
rible 2049
Female 2049
Brid@@ 2049
Jar@@ 2048
She's 2048
#1.89@@ 2048
Vinc@@ 2047
icked 2047
Offic@@ 2046
man's 2046
Hus@@ 2046
Lights 2046
ablo 2045
ital@@ 2045
är 2045
Tears 2045
trac@@ 2045
sha 2045
0.@@ 2045
Student 2044
Kra@@ 2043
noc@@ 2043
ft. 2043
Daugh@@ 2042
star@@ 2042
ension 2042
ments 2042
icia 2041
Salv@@ 2041
Michelle 2041
november 2041
Hob@@ 2040
yard 2040
Si 2040
stor@@ 2039
BI@@ 2039
oso 2038
more 2038
Bears 2038
Indian 2037
Sword 2037
Bell 2037
Presents: 2037
Warrior 2036
Pat 2036
Kab@@ 2035
mission 2035
Fat@@ 2033
jer@@ 2033
Justin 2033
Opening 2032
ucc@@ 2032
#1.251 2032
en-@@ 2031
Exper@@ 2031
ester@@ 2030
Wave 2030
Field 2030
cri@@ 2029
Parents 2029
Cent@@ 2029
hu 2029
august 2029
Victoria 2028
yc@@ 2028
Bail@@ 2028
Balls 2028
WO@@ 2028
#1.252 2028
eno 2027
gan 2027
Thief 2026
SU@@ 2026
uta 2025
os: 2025
Express 2024
les@@ 2023
Animated 2023
aro 2023
Perf@@ 2022
Raw 2022
#6.1 2022
cre@@ 2021
Juan 2021
Comb@@ 2021
inal 2021
Trick 2020
Ther@@ 2020
urb@@ 2019
ld@@ 2018
Ec@@ 2018
kor@@ 2017
pan@@ 2016
oto@@ 2016
Dir@@ 2016
cer@@ 2016
Tribute 2016
Almost 2015
Wanted 2015
ron 2015
Single 2015
rog@@ 2014
Nad@@ 2014
iet 2013
Entre@@ 2013
its@@ 2013
Extra 2012
agn@@ 2012
#1.253 2012
Pleas@@ 2011
n: 2011
Hide 2010
ason 2010
isha 2010
dar@@ 2009
Tight 2009
Hero@@ 2008
1963 2008
Boat 2007
Priso@@ 2007
eva 2007
Center 2007
Jenn@@ 2006
Main 2006
Italian 2005
Shoo@@ 2005
ishing 2004
Fan@@ 2004
Beat@@ 2004
Alph@@ 2004
Vs. 2004
6.@@ 2004
Army 2003
Squad 2003
VE 2002
#1.254 2002
januar 2002
Mix@@ 2001
ako 2001
Needs 2001
#25.1@@ 2001
Nicole 2000
etti 1999
#5.6 1999
Kre@@ 1998
Personal 1997
ough 1997
#1.255 1997
Post 1996
ause 1996
Ground 1996
ukk@@ 1996
Kum@@ 1995
Mount@@ 1994
Plus 1994
ring 1993
@ 1993
Fate 1992
Lear@@ 1992
Boyfriend 1992
oktober 1990
Carol 1989
Official 1989
Ech@@ 1989
S01E@@ 1989
alo 1988
pap@@ 1987
iw@@ 1987
Monday 1986
feat@@ 1986
asa 1985
Revel@@ 1984
oa 1984
ää@@ 1984
Weird 1983
#1.256 1983
Saint 1982
man, 1980
Ex 1980
pa@@ 1979
T! 1979
key 1978
Everyone 1978
ß 1977
iller 1977
Middle 1977
Gary 1977
Dark@@ 1976
det 1976
Luck 1976
Bos@@ 1976
suit 1976
Or 1976
lich 1976
Cris@@ 1975
Pul@@ 1974
Vision 1974
dag@@ 1974
Reve@@ 1974
Nine 1972
Myth@@ 1972
Oscar 1972
kee 1971
etsu 1971
#28.@@ 1971
enz@@ 1970
Falling 1970
Yellow 1969
Diam@@ 1969
Rele@@ 1969
Dress 1967
cap@@ 1967
Inten@@ 1967
#1.257 1967
TER@@ 1967
Twent@@ 1966
iten 1966
#1.71@@ 1966
Dollar 1965
Lie 1965
Les@@ 1965
view 1965
ax 1964
#2.26 1964
world 1963
omy 1963
#3.14 1963
ird 1962
ker@@ 1961
Peop@@ 1961
uts 1961
#1.258 1961
not 1960
Quiet 1959
Audition 1959
Honey 1957
dagsrevyen 1957
vil@@ 1956
aman 1956
UFC 1956
DIS@@ 1956
-- 1955
osp@@ 1955
Haun@@ 1954
Julia 1954
Cover 1953
GE 1953
tional 1952
ential 1951
À 1951
Sexual 1951
Egg 1950
Lem@@ 1950
Tin@@ 1950
#1.260 1949
Different 1948
Report 1947
#1.259 1947
Thom@@ 1945
Lust 1945
Vamp@@ 1945
Married 1944
ic: 1944
onna 1943
uns 1943
Um 1942
ph 1941
ité 1941
Ghost@@ 1941
aur@@ 1941
far@@ 1940
Plays 1940
Spot@@ 1940
ente@@ 1940
fem@@ 1940
Semi-@@ 1940
rage 1939
Strike 1939
Ann 1939
Pip@@ 1938
D-@@ 1938
Bloody 1937
us: 1937
cks 1934
i? 1934
se: 1934
Animation 1934
Orgas@@ 1933
2.2@@ 1933
Easter 1932
Japanese 1932
sten 1931
onn@@ 1929
Bank 1929
.A.@@ 1929
Barcelona 1928
Chan@@ 1928
aut 1928
water 1928
september 1928
Barbara 1927
esis 1927
ße 1927
ival 1926
Presents 1925
#29.@@ 1925
mé@@ 1923
Watching 1923
Indust@@ 1919
Amy 1919
fucking 1919
Performance 1918
Mysteri@@ 1918
Babys@@ 1918
ae 1916
Kil@@ 1915
#1.90@@ 1915
inary 1914
Noc@@ 1914
ál@@ 1914
bol@@ 1913
Jake 1912
andra 1912
Las@@ 1912
50@@ 1912
istoire 1912
Mit 1911
Parte 1911
Market 1910
Lion 1910
sam@@ 1910
but 1910
ej@@ 1908
Straight 1908
år 1908
Escap@@ 1907
ums 1907
yon 1906
aza 1905
Again@@ 1905
Toys 1905
aces 1905
ounded 1905
iat@@ 1905
cam@@ 1904
Dyn@@ 1904
Welt 1904
über 1903
uses 1902
Casa 1902
oose 1902
tag@@ 1902
Ç@@ 1902
Drop 1900
big 1900
tar 1899
vir@@ 1899
Carlos 1899
Fair@@ 1898
inn 1898
zie@@ 1898
Community 1898
Proc@@ 1897
wie 1897
casa 1896
Bub@@ 1896
Intern@@ 1896
Ä@@ 1895
Heav@@ 1895
Saturday 1894
Those 1893
oop 1893
upp@@ 1893
Teens 1892
Chasing 1892
letz@@ 1891
Techn@@ 1891
yll@@ 1890
#1.261 1890
Gab@@ 1889
sil@@ 1888
Carr@@ 1887
ès 1887
Mari@@ 1887
Dok@@ 1887
a) 1886
List 1886
Voices 1886
Nan@@ 1886
sex 1886
Are@@ 1886
NR@@ 1886
#26.1@@ 1886
Racing 1885
M. 1884
tima 1884
Path 1883
eda 1882
Nom@@ 1882
fon@@ 1881
#1.262 1881
sh 1880
Scor@@ 1880
Gef@@ 1880
Dallas 1880
08@@ 1880
#1.263 1880
box@@ 1879
Barb@@ 1879
UT@@ 1879
Pleasure 1878
Won't 1878
Stran@@ 1877
test@@ 1877
Maker 1876
Wheel 1876
uz@@ 1875
ott 1875
thers 1875
jam@@ 1875
rov@@ 1875
bal@@ 1875
Fuck@@ 1875
Haz@@ 1874
Giants 1874
Card 1873
kel@@ 1873
Orch@@ 1873
Slut 1873
ieg@@ 1872
Weap@@ 1871
î 1871
Scary 1871
mach@@ 1870
Simon 1869
#1.264 1869
Fishing 1868
ogo 1868
Check 1868
Kansas 1868
#1.265 1868
char@@ 1867
Stuff 1867
Player 1867
Lane 1867
Quarter@@ 1867
.I.@@ 1867
yh@@ 1866
ational 1866
Refl@@ 1866
ount@@ 1865
Peggy 1865
aur 1865
31. 1865
iny 1864
Joan 1864
Sit@@ 1863
Deep@@ 1863
Golf 1862
MAN@@ 1862
dal 1860
Mann 1860
Doug@@ 1860
u! 1860
antic 1859
1958 1859
get@@ 1858
body 1858
ced 1858
lar@@ 1857
eline 1857
én 1857
#16.2@@ 1857
lib@@ 1856
Falls 1856
Warning 1856
Spot 1856
Angry 1855
Creature 1855
omes 1854
edo 1854
lich@@ 1854
S: 1854
overy 1853
ego 1853
miss@@ 1853
7, 1853
ban@@ 1852
Results 1852
Hold 1851
Yourself 1851
Delivery 1850
Fall@@ 1850
#1.266 1850
#1.267 1849
#1.268 1849
Au 1848
Famous 1847
Talk@@ 1847
Dub@@ 1847
#3.15 1847
Front 1846
#1.93@@ 1846
Test, 1846
enh@@ 1845
Compet@@ 1845
led@@ 1845
ME 1845
geb@@ 1844
aco 1844
Houston 1843
ucky 1842
ine: 1842
Feel 1842
Chic@@ 1842
Lau@@ 1841
Ashes 1841
Corn@@ 1841
schw@@ 1841
unt@@ 1840
Bras@@ 1840
#1.269 1840
Pill@@ 1839
Creamp@@ 1838
Rabbit 1838
Booty 1838
#5.7 1838
Semif@@ 1838
#1.270 1838
Scanda@@ 1837
van@@ 1836
Cir@@ 1836
Session 1836
Elec@@ 1836
Online 1836
Promise 1835
Fav@@ 1834
Wend@@ 1833
ät 1832
san 1832
s... 1832
ähr@@ 1832
ests 1831
isch@@ 1831
Calling 1830
gef@@ 1830
Truck 1830
Level 1829
Swall@@ 1829
Frag@@ 1829
Early 1828
Gagged 1828
Emerg@@ 1828
Ti@@ 1827
Teen@@ 1827
Gem@@ 1826
iter 1825
used 1824
Gir@@ 1823
Math@@ 1823
astic 1823
Mia 1823
ading 1822
éri@@ 1822
first 1822
ths 1821
Julie 1821
aj 1821
isto@@ 1820
ried 1820
u: 1820
CI@@ 1820
ness@@ 1819
Well@@ 1819
Aband@@ 1818
Travel@@ 1818
Guer@@ 1817
Sup@@ 1817
isted 1817
rol 1817
#2.27 1817
wom@@ 1816
fut@@ 1816
Lucy 1816
#1.271 1816
Flowers 1815
Peter@@ 1815
akk@@ 1815
#1.272 1815
mir@@ 1814
part@@ 1814
Dais@@ 1814
Sir 1814
Nich@@ 1814
Fon@@ 1813
Neighb@@ 1812
Met 1812
Dil@@ 1812
Sean 1812
Clown 1811
Across 1811
ept 1811
wich 1811
YouTube 1811
Ma 1810
äh@@ 1810
#1.273 1810
Kamp@@ 1809
Tow@@ 1808
* 1808
@@@ 1808
#4.11 1808
#1.274 1808
Dum@@ 1807
#1.275 1807
fish 1806
Design 1806
bi 1805
#1.276 1805
isten@@ 1804
Me, 1804
uer@@ 1804
Des 1804
Liverpool 1804
Por 1803
iao 1803
Tower 1802
Message 1802
Knock@@ 1802
yû 1802
Past@@ 1802
Dick@@ 1802
tou 1801
Lay@@ 1801
#1.277 1801
conf@@ 1800
tin@@ 1800
dra@@ 1800
nis@@ 1800
Zh@@ 1800
Society 1799
board 1799
Frozen 1799
LY 1799
Fairy 1798
issa 1798
Roomm@@ 1798
#1.278 1798
Ras@@ 1797
izz@@ 1797
day, 1797
Honor 1795
Margar@@ 1795
Geheim@@ 1795
Dia 1795
inv@@ 1794
adi 1794
Theater 1794
istan 1793
Laz@@ 1792
geh@@ 1792
spir@@ 1792
Sear@@ 1792
#1.279 1792
ijo 1791
februar 1791
d'un 1790
Watch@@ 1790
Commun@@ 1790
Portug@@ 1789
Fet@@ 1789
ael 1789
Alexander 1789
ulo 1789
iance 1788
Ire@@ 1788
Ax@@ 1788
Feed@@ 1788
Multi@@ 1788
#1.280 1788
oul 1787
Carl@@ 1787
Phil 1787
th, 1787
DV@@ 1787
Calls 1786
aim@@ 1786
perf@@ 1786
Vlog 1786
desember 1786
Gord@@ 1785
dog@@ 1785
Fam@@ 1785
Million@@ 1784
way@@ 1784
pped 1784
21@@ 1784
Build 1783
#1.282 1783
Century 1782
B. 1782
#1.281 1782
Cad@@ 1781
igh 1780
Dé@@ 1779
Follow 1779
Enough 1779
emy 1779
-2021 1779
Sib@@ 1778
#1.283 1778
Sale 1777
tom@@ 1777
Victor@@ 1777
#1.284 1777
Four@@ 1776
Weekl@@ 1776
Host 1776
Jazz 1775
Atlanta 1775
ural 1774
ebr@@ 1774
itions 1774
Tem@@ 1773
Thunder 1773
eu@@ 1773
BLO@@ 1773
Ending 1772
Deal@@ 1772
Appe@@ 1771
Lonely 1771
Evolution 1771
immer 1770
el: 1770
#1.285 1770
Emo@@ 1769
Kok@@ 1768
Facts 1768
Orange 1767
Debate 1767
Virt@@ 1766
tak@@ 1766
Cen@@ 1765
#2.28 1765
Secre@@ 1764
Devil@@ 1764
Shoot 1764
Gig@@ 1763
Typ@@ 1763
Flash@@ 1763
MTV 1763
unch 1762
Robin@@ 1762
asi 1762
Its 1761
Emma 1761
pag@@ 1761
Urban 1761
tz@@ 1760
Fear@@ 1760
Nag@@ 1760
Georgia 1760
(199@@ 1760
#1.287 1760
Gas@@ 1759
ected 1759
Mumm@@ 1759
Milk 1757
enta 1757
Luke 1757
UL@@ 1757
System 1756
#1.286 1756
#1.288 1756
Independ@@ 1755
kal@@ 1755
mad@@ 1754
Border 1754
German@@ 1754
oca 1754
Ou@@ 1753
fire 1752
Witness 1752
zw@@ 1752
Betty 1751
Tex@@ 1751
gle 1751
imi 1750
Medic@@ 1749
ormal 1749
Count 1748
Proph@@ 1748
Jam 1748
Dr 1747
(198@@ 1747
#1.95@@ 1747
Brew@@ 1746
Learning 1746
Cot@@ 1745
Plat@@ 1745
#5.8 1745
Arriv@@ 1744
General 1744
Outer 1744
Sterling 1744
#1.289 1744
rica 1743
Bunny 1743
uku 1743
Rail@@ 1741
stein 1741
8, 1741
#1.290 1740
Photogra@@ 1739
Growing 1739
~ 1739
#1.94@@ 1739
Strugg@@ 1738
Eas@@ 1738
Eddie 1738
mov@@ 1738
Love, 1737
Duck 1737
Rot@@ 1737
MI@@ 1736
Ré@@ 1735
Rage 1735
bil@@ 1735
Jamie 1735
#1.291 1735
#1.293 1735
South@@ 1734
unk 1734
Zombies 1734
Yoga 1734
Govern@@ 1733
nar@@ 1733
Gif@@ 1733
#4.12 1733
antes 1731
Crimin@@ 1731
Jackie 1731
Butt 1731
erson 1730
aja 1730
Rio 1730
Lun@@ 1730
Dig@@ 1730
Bye 1730
eki 1730
Respon@@ 1730
Late@@ 1729
Lon@@ 1728
es' 1728
Smoke 1728
Influ@@ 1728
Put 1728
Forbidden 1728
Sang@@ 1728
nach@@ 1728
Connection 1728
vor@@ 1727
Television 1727
#1.294 1727
#1.292 1727
Cowboy 1726
Advent@@ 1726
idi 1726
Argent@@ 1725
ince 1725
Sleeping 1724
Redemption 1724
Rat 1724
love 1724
dan@@ 1722
500 1722
más 1722
Über@@ 1722
He's 1722
Wednes@@ 1722
#3.16 1722
port 1721
Tommy 1721
Stup@@ 1721
By@@ 1720
etic 1720
E.@@ 1720
Barry 1719
iqu@@ 1719
ancy 1719
har 1719
Cherry 1718
SH@@ 1718
Rus@@ 1717
Os 1716
Steel 1716
Maya 1716
#1.295 1716
Bag 1714
E. 1714
#1.297 1714
Laur@@ 1713
Fortune 1712
Thoughts 1712
#2.29 1712
Chas@@ 1711
App@@ 1711
#1.296 1711
eze 1709
ing) 1709
rob@@ 1708
Jean-@@ 1708
øn@@ 1707
endo 1707
#1.300 1707
u, 1706
sie 1706
Auf@@ 1706
Cowboys 1705
3D 1705
Wra@@ 1704
Ug@@ 1703
Mon 1703
#1.92@@ 1703
aska 1702
Life: 1702
#1.298 1702
Nation@@ 1701
Sara 1701
Exclusive 1700
07@@ 1700
urs@@ 1699
Whe@@ 1699
obre 1699
Pay 1699
k's 1698
ção 1698
#1.299 1698
Lines 1697
County 1697
Davis 1697
Ish@@ 1697
Deutsch@@ 1697
Bran@@ 1696
Beginn@@ 1696
Vin@@ 1696
Terror@@ 1696
well 1695
KE 1694
fac@@ 1693
Slave 1693
Fest 1693
#27.1@@ 1693
pping 1692
Yu@@ 1692
fuck@@ 1692
Central 1691
Joseph 1691
Cha@@ 1691
zilla 1691
#2.4@@ 1691
Seg@@ 1690
einer 1690
estra 1690
Bitch 1690
te! 1690
Vida 1688
Raz@@ 1688
Grav@@ 1688
icious 1687
Eg@@ 1687
ecu@@ 1686
Sacrif@@ 1686
Total 1686
0.1@@ 1686
Pokemon 1686
weg@@ 1685
Knows 1684
Event 1684
Hardcore 1684
Fix@@ 1683
Happiness 1683
äd@@ 1683
#30.@@ 1683
ho@@ 1682
Rit@@ 1682
40@@ 1682
kle@@ 1681
Jor@@ 1681
Ukra@@ 1681
Interviews 1680
Een 1679
Kah@@ 1679
agen 1678
#1.301 1678
rier 1677
rat 1677
Farm@@ 1677
Palace 1677
Strikes 1677
ingers 1677
door 1677
Cave 1676
case 1676
kr@@ 1676
Hai 1675
QU@@ 1675
#1.96@@ 1675
Gib@@ 1674
Decision 1674
non 1674
Pregn@@ 1674
hon@@ 1673
aws 1673
Kris@@ 1673
Basketball 1673
Talent 1672
Afternoon 1672
1960 1672
#2.30 1672
Wheels 1671
el's 1670
eau 1669
1962 1669
Vib@@ 1668
an-@@ 1668
iva 1668
Shopping 1668
Ron 1668
#1.303 1668
große 1667
Morg@@ 1667
ram 1667
Jur@@ 1667
JPW 1667
Frog 1666
1959 1666
#1.302 1666
ebe 1665
2019: 1665
#6.2 1665
Just@@ 1664
Trapped 1664
Teas@@ 1664
ey, 1664
Karen 1664
Nec@@ 1663
#1.304 1663
nos 1662
Question 1662
bet@@ 1662
Nak@@ 1662
o) 1660
Pacif@@ 1658
Cats 1658
Daw@@ 1658
nik@@ 1658
Kapitel 1658
amo 1657
Punish@@ 1657
friend@@ 1657
Canad@@ 1657
lov@@ 1657
kun@@ 1657
wel@@ 1656
Tips 1656
Pump@@ 1656
bas@@ 1655
Trad@@ 1655
Allen 1655
Sydney 1655
game 1654
#1.305 1654
este 1653
5, 1653
English 1653
Grey 1652
anta 1652
Lily 1652
Wine 1652
by@@ 1652
Denn@@ 1652
Energy 1652
Clin@@ 1652
#1.306 1652
Nut@@ 1651
Pak@@ 1651
Cute 1651
net 1650
illed 1650
at: 1650
Bib@@ 1649
Gods 1649
Called 1649
eden 1649
wa@@ 1649
Patric@@ 1648
Apocalypse 1648
Tik@@ 1648
#1.307 1648
Virginia 1647
Someone 1647
Hunters 1646
under 1646
Store 1646
Song@@ 1646
rich 1646
#1.308 1646
#1.309 1646
Lover 1645
Characters 1645
Sz@@ 1644
le-@@ 1644
kie 1644
Ü@@ 1644
206 1643
Present 1642
gol@@ 1642
Crossing 1642
Voyage 1641
Suicide 1641
Prov@@ 1641
Werew@@ 1641
awn 1641
san@@ 1641
Kel@@ 1641
Philadelphia 1641
Game@@ 1641
Women's 1640
201 1640
#31.@@ 1640
Rush 1639
iang 1639
Europe 1639
rid 1639
15:00 1638
íc@@ 1637
Secret@@ 1637
ful@@ 1637
osis 1637
Spre@@ 1637
uh@@ 1637
Amber 1637
Stern@@ 1637
Jag@@ 1636
ishi 1636
fest 1636
Shooting 1635
Jess@@ 1635
Det 1635
Miles 1635
aten 1635
Gul@@ 1635
Bear@@ 1635
ups 1635
10: 1635
berg@@ 1635
ba@@ 1634
Crew 1634
heim@@ 1634
#1.310 1634
Ali 1632
Hat 1632
Cash 1632
et, 1632
203 1632
#7.1 1632
Odys@@ 1631
ec 1631
Wonderful 1630
2.1@@ 1630
Club@@ 1629
Vas@@ 1629
202 1629
SM@@ 1629
ric 1628
Pract@@ 1628
ki@@ 1628
Lap@@ 1628
Sounds 1628
Netfl@@ 1628
Hits 1627
ials 1627
Bachel@@ 1626
Oil 1626
Problems 1626
itude 1625
Krist@@ 1625
Guns 1624
Trac@@ 1624
vide@@ 1624
Huge 1624
Poké@@ 1624
plus 1623
Hed@@ 1623
Crim@@ 1622
Lessons 1622
Underground 1622
Greg 1622
tation 1621
Wash@@ 1621
dom 1621
Doesn't 1621
Detroit 1621
(19@@ 1620
ffed 1620
Atten@@ 1620
Zwe@@ 1619
Lux@@ 1619
?? 1619
Record 1618
African 1618
esch@@ 1618
Lunch 1618
shire 1618
205 1618
React 1618
bon 1617
Rough 1617
Jahre 1617
Matthew 1617
DO 1617
mou@@ 1616
hem 1616
ux@@ 1616
Sing 1616
uto 1616
Yo 1615
II) 1615
William@@ 1614
som 1614
Fine 1614
Masters 1614
it: 1614
Miller 1613
Carpet 1613
Till 1613
#1.311 1613
Education 1612
Dying 1612
Recipe 1612
ienc@@ 1611
Jah@@ 1611
igen 1611
'n@@ 1611
): 1611
Press 1610
Trail@@ 1610
Babe 1610
down@@ 1610
#6.3 1610
Same 1609
Jenny 1609
Sequ@@ 1609
ton, 1609
2020@@ 1609
#1.312 1609
erine 1608
Ship 1607
Burn 1607
Low@@ 1607
Whit@@ 1607
ikan 1607
gam@@ 1606
beg@@ 1606
Jo 1606
tem 1605
kur@@ 1605
attle 1605
204 1605
iter@@ 1604
..@@ 1604
#6.4 1604
Identity 1603
illo 1603
Pirates 1603
asu 1603
ror 1602
Stolen 1601
Cardin@@ 1601
Eats 1601
Ya 1601
#1.314 1601
Activ@@ 1600
night 1600
#3.17 1600
#1.313 1600
Mini 1599
Neighbor@@ 1598
Stad@@ 1598
Roc@@ 1597
Spider 1597
Simple 1597
anic 1597
vention 1597
Situ@@ 1597
Fug@@ 1596
eri 1596
Tough 1596
tial 1596
Sty@@ 1596
Honey@@ 1595
isc@@ 1595
Cosm@@ 1595
Electric 1594
Keeping 1594
lla 1594
Steven 1594
VE@@ 1594
Triple 1593
ohne 1593
Shock 1593
Remember@@ 1593
you@@ 1593
Kind@@ 1592
Ashley 1592
aders 1591
ää 1591
Course 1590
Sag@@ 1590
Spoil@@ 1590
us, 1590
timo 1590
#1.315 1590
Hills 1589
inging 1589
Done 1588
agement 1587
Scen@@ 1587
hand@@ 1587
noch 1587
Motion 1586
ú 1586
zy@@ 1586
Queens 1586
Abs@@ 1585
Harr@@ 1585
P. 1585
Ke 1585
ivers@@ 1584
Greg@@ 1583
Push@@ 1583
Cars 1583
Journal 1583
#1.316 1583
WOR@@ 1583
Butterfly 1582
Hospital 1582
Male 1582
Pant@@ 1582
Heavy 1582
Fred 1582
Especial 1582
Prim@@ 1581
Circ@@ 1580
dest@@ 1580
Philosoph@@ 1580
LE 1580
CK 1580
#1.317 1580
Wilson 1579
Lions 1579
Stream 1579
maki 1578
207 1578
#1.318 1578
Smile 1577
Chelsea 1577
Schwe@@ 1577
Gran 1576
Tier@@ 1576
Flo@@ 1576
isi 1576
tion! 1576
#1.319 1576
alle 1575
tac@@ 1575
WE@@ 1575
Dress@@ 1574
dame 1574
Shocking 1574
Biz@@ 1574
vie@@ 1574
Effect 1574
Ang 1574
Amanda 1574
#1.320 1574
ements 1573
zer 1573
Kell@@ 1573
nu 1573
Pier@@ 1572
ure: 1572
Hong 1572
Preview 1572
Rip@@ 1571
Month 1571
BA@@ 1571
rel 1570
asts 1570
Stuck 1570
Fit 1570
Sah@@ 1570
ilog@@ 1570
#4.13 1570
Nancy 1569
Sug@@ 1569
Kos@@ 1569
#17.2@@ 1569
hem@@ 1568
Pit@@ 1568
Christo@@ 1568
Steph@@ 1567
Forget 1567
Learn 1567
tor's 1566
ères 1566
Wak@@ 1566
tt@@ 1565
Anything 1565
Kaz@@ 1565
!) 1565
stand@@ 1564
Marsh@@ 1564
Triang@@ 1564
Outside 1564
U.@@ 1564
hos 1564
208 1564
#1.321 1564
Resur@@ 1563
Driver 1563
mond 1563
ldn't 1563
jan@@ 1563
#5.9 1563
#1.322 1563
Fatal 1562
Window 1562
Park@@ 1562
/0@@ 1562
hib@@ 1561
Ken 1561
IT 1561
Lav@@ 1560
eces 1560
Raf@@ 1560
Stew@@ 1560
Propos@@ 1559
Saw 1559
Viet@@ 1559
#1.323 1559
Judge 1558
Em 1558
alle@@ 1558
(202@@ 1558
sky 1557
Hood 1556
aded 1556
maker 1556
Strong 1556
pad@@ 1556
Shap@@ 1556
I've 1556
ers/@@ 1556
#3.18 1556
Ford 1555
Lob@@ 1555
berry 1555
Hurric@@ 1555
oli 1554
Driving 1554
Bruce 1554
XXX 1554
#1.99@@ 1554
iser 1553
Workout 1553
Marc 1553
#1.324 1553
Piece 1552
Fighter 1552
Succ@@ 1552
Promis@@ 1552
196@@ 1552
#1.325 1552
too 1551
Retur@@ 1550
unter 1550
Merry 1548
Souls 1548
Wag@@ 1548
Ends 1548
Kidnapp@@ 1548
Pass 1548
#1.326 1548
Victory 1547
anche 1547
Low 1547
eder@@ 1547
Fallen 1546
Rebec@@ 1546
Strangers 1546
fun@@ 1546
par 1545
Northern 1545
ile@@ 1545
Factory 1544
form 1544
Scream 1544
à@@ 1544
209 1544
Soldier 1543
Man: 1543
ju 1543
fort 1543
Roger 1543
CON@@ 1543
Antonio 1542
Father's 1542
uch 1542
Tu 1542
Sweet@@ 1541
Track 1541
1950 1541
#1.327 1541
Changing 1540
Birth@@ 1540
aqu@@ 1540
ific@@ 1539
Melissa 1539
TA 1539
ter/@@ 1539
#6.5 1539
oss 1538
Massacre 1538
Sir@@ 1538
tic@@ 1537
Desc@@ 1537
ided 1537
kvarter 1537
Trophy 1537
Politisk 1537
Hoch@@ 1536
Announ@@ 1536
Videos 1536
gesch@@ 1535
äch@@ 1535
Special@@ 1535
Termin@@ 1535
#1.328 1535
Dilem@@ 1534
Ain't 1534
Foun@@ 1534
yk@@ 1533
aha 1533
#2.31 1533
Island@@ 1532
Yan@@ 1532
Fix 1532
Magaz@@ 1532
aug@@ 1531
Trop@@ 1531
1951 1531
Digital 1531
Coach 1530
estre@@ 1530
imo 1530
UNI@@ 1530
Dob@@ 1529
bed 1529
Up! 1529
sind 1529
oko 1529
ife 1528
Langu@@ 1528
Bull 1528
Arts 1528
PAR@@ 1528
Incredible 1527
Virgin 1526
Russia 1526
Bomb 1525
Gan@@ 1525
TO 1525
Awakening 1524
tran@@ 1524
Pig 1524
fs 1524
urai 1524
Ross@@ 1524
Elim@@ 1524
#1.330 1524
Sick 1523
Madrid 1523
Sket@@ 1523
ono 1523
gang 1523
Blow 1523
stand 1523
#1.329 1523
Profess@@ 1522
Eight 1522
Fantastic 1522
fort@@ 1521
Arthur 1521
Leo 1521
Budd@@ 1521
fa 1521
Jen@@ 1521
#1.331 1521
Feel@@ 1520
#3.19 1520
kins 1519
el, 1519
Charac@@ 1519
MC@@ 1519
ý@@ 1518
war 1518
Which 1518
Pack 1518
ï@@ 1518
Hack@@ 1518
day: 1518
Union 1517
Monster@@ 1517
1961 1517
iers 1516
arch@@ 1516
Nick@@ 1516
Merma@@ 1516
Happens 1516
Te 1516
aring 1515
Spoo@@ 1515
fu 1515
Impossible 1514
Sand 1514
Hitl@@ 1514
#1.333 1514
Junior 1513
einen 1513
2018: 1513
José 1512
Fame 1512
Unexpected 1511
Smith@@ 1511
Cod@@ 1511
after 1511
ily 1511
Former 1511
#5.10 1511
#1.334 1511
#1.332 1511
Magical 1510
jer 1510
Disappear@@ 1510
book 1510
Original 1510
Pom@@ 1509
Restaurant 1509
tia 1509
iert 1509
Places 1508
engu@@ 1508
nam 1508
ers' 1507
oney 1507
him@@ 1507
#2.32 1507
zur 1506
Conference 1506
#1.335 1506
Relig@@ 1505
Until 1505
Tag@@ 1505
Duty 1504
Ful@@ 1504
Magic@@ 1504
Sandra 1504
Discuss@@ 1504
Fury 1503
Fu 1503
ilian 1503
Tyler 1503
bang 1503
SC@@ 1502
lam@@ 1502
#1.336 1502
Perform@@ 1501
States 1501
Turning 1501
Obj@@ 1501
Pandem@@ 1501
tz 1500
inge 1500
Doom@@ 1500
zwe@@ 1500
T. 1500
#1.337 1500
bourne 1499
Ex-@@ 1499
ulous 1499
bers 1499
Dame 1499
Board 1499
Show: 1499
monde 1499
adas 1498
stone 1498
Ut@@ 1498
like 1498
#6.6 1498
Desperate 1497
Prepar@@ 1497
idas 1497
1954 1497
Acad@@ 1497
Conspiracy 1496
div@@ 1495
io@@ 1495
Bread 1495
ío 1495
lie 1495
omic 1495
ables 1495
University 1494
Brave 1494
at? 1494
Nina 1494
iding 1494
days 1494
iger 1494
#1.340 1494
foot 1493
Adams 1493
Impact 1493
aged 1492
Vengeance 1492
Strip@@ 1492
Ted@@ 1492
Kinder@@ 1492
wir@@ 1492
#1.339 1492
gri@@ 1491
Desire 1491
Confessions 1491
Mind@@ 1491
1952 1491
Simp@@ 1490
Russell 1490
Maid 1489
Sail@@ 1489
000 1489
ained 1489
Slow 1489
Alles 1489
sue 1489
MA 1489
s" 1489
ords 1488
hai 1488
#1.338 1488
Zoo 1487
Osc@@ 1487
ili 1487
Riding 1486
Cook 1486
ã@@ 1486
tures 1485
Brand 1485
Mech@@ 1485
#3.20 1485
#1.341 1485
ators 1484
Unter@@ 1484
age: 1484
Cinem@@ 1484
Vypusk 1484
Lose 1483
irs 1483
ação 1482
Israel 1482
úl@@ 1482
es) 1482
Enc@@ 1481
Orleans 1481
gan@@ 1481
AM 1481
FE@@ 1481
Poor 1480
Bond 1480
jour@@ 1480
Trek 1480
DESTRO@@ 1480
ing's 1479
inks 1479
tec@@ 1479
ady 1479
nou@@ 1479
Arte 1479
Galaxy 1479
#1.342 1479
está 1478
), 1478
#1.343 1478
Joey 1477
gran@@ 1476
vis 1476
View@@ 1476
Ninten@@ 1476
sou@@ 1475
#1.345 1475
iety 1474
fron@@ 1474
Gina 1474
#1.344 1474
Stock@@ 1473
unde 1473
hy@@ 1473
Went 1472
Preda@@ 1472
Cond@@ 1472
Schul@@ 1471
Witch@@ 1471
Geschich@@ 1471
Tul@@ 1471
9, 1471
ran 1471
hua 1471
Suff@@ 1469
Shat@@ 1469
ient@@ 1469
erts 1469
ungs@@ 1469
Di 1469
#1.98@@ 1469
isch 1468
Bella 1468
Jed@@ 1468
D: 1468
#1.97@@ 1468
lock 1467
Professor 1467
Perc@@ 1467
Syl@@ 1467
stru@@ 1467
uj@@ 1467
äm@@ 1467
Human@@ 1466
elo 1466
#1.346 1466
Bis@@ 1465
Judg@@ 1465
Pierre 1465
Eb@@ 1465
Prime 1464
Bog@@ 1464
icking 1464
Jesse 1464
Sas@@ 1463
sum@@ 1462
Mean 1462
ell, 1462
3rd 1462
Orson 1462
DP 1462
have 1462
#1.347 1462
Italy 1461
Twin 1461
ros@@ 1461
hin@@ 1461
oka 1461
owing 1460
Elephant 1460
Ark@@ 1460
Mr@@ 1460
Rescu@@ 1459
Lawr@@ 1459
#1.348 1459
Mall@@ 1458
Gay@@ 1458
Tort@@ 1458
Dak@@ 1458
Hend@@ 1458
Czech 1458
Revis@@ 1458
AT 1458
Akanechan 1458
Laugh 1457
Hist@@ 1457
Gives 1457
Cran@@ 1457
Aaron 1457
**@@ 1457
#2.33 1457
Trying 1456
macht 1456
Gonz@@ 1456
ensor@@ 1455
Sunshine 1455
ken@@ 1455
Twins 1455
Comple@@ 1455
Anderson 1455
Wes@@ 1454
Twil@@ 1454
bu 1454
Hin@@ 1454
Edit@@ 1454
Crush 1454
Steps 1453
Campaign 1453
pon@@ 1453
Minnesota 1453
ycle 1452
Any 1452
Doing 1452
Baltim@@ 1452
nic 1451
Cast@@ 1451
Aveng@@ 1451
rik 1451
T-@@ 1451
Brook@@ 1451
udo 1450
liche 1450
Encounter 1450
#1.349 1450
Auto 1449
Military 1449
ket@@ 1449
Spiel@@ 1449
Thurs@@ 1449
Doom 1448
Gate 1448
Actress 1448
#1.350 1448
Kennedy 1447
ede 1446
Papa 1446
eira 1446
T.@@ 1446
Comment@@ 1446
Egyp@@ 1445
Fruit 1445
Strong@@ 1445
#1.353 1445
Bew@@ 1444
Mighty 1444
Thank 1444
ante@@ 1443
Belle 1443
Person 1443
JO@@ 1443
etto 1442
Brad@@ 1442
#1.351 1442
#1.352 1442
ampa 1441
Mansion 1441
Buddy 1441
ther@@ 1441
Valentine's 1441
Bath 1440
Bring 1440
Sebas@@ 1439
Turkey 1439
Dust 1439
Glob@@ 1439
Desp@@ 1439
01@@ 1439
#1.354 1439
na@@ 1438
Ted 1438
#1.355 1438
man/@@ 1437
Above 1436
Rib@@ 1436
Opera 1436
Austin 1436
iant 1436
Pand@@ 1436
essed 1436
pen 1436
omo 1436
Twe@@ 1436
Cinc@@ 1436
wan 1436
5th 1436
Cam 1436
PE@@ 1436
#1.356 1436
Breath 1435
Econ@@ 1435
deb@@ 1435
#2.34 1435
North@@ 1434
With@@ 1434
Roblo@@ 1434
06:00 1434
Square 1433
Friendship 1433
Quick 1432
Hop 1432
Whole 1432
break 1432
hog@@ 1432
Ukraine 1432
chan 1432
Explained 1432
Apart@@ 1431
Cum@@ 1431
vers 1431
quer@@ 1430
ed? 1430
Waters 1430
Sud@@ 1430
kies 1430
#1.357 1430
vic@@ 1429
Tonight 1429
cat@@ 1429
Ral@@ 1429
Lauren 1429
bing 1428
kat@@ 1428
Jes@@ 1428
owa 1428
stunde 1428
ega 1428
ge: 1428
Sap@@ 1427
OF 1427
Buffalo 1426
Roman 1426
Rocky 1426
Shoes 1426
Grave 1426
Import@@ 1426
ashed 1426
Must@@ 1425
plac@@ 1425
Stat@@ 1425
Ek 1425
polit@@ 1425
Hul@@ 1424
Pirate 1424
son: 1424
din 1423
riv@@ 1423
Phys@@ 1423
Symph@@ 1423
Abb@@ 1423
Boom@@ 1422
Feeling 1422
You, 1422
Familie 1422
#1.358 1422
Along 1421
Luna 1421
enge@@ 1421
Incident 1421
1957 1421
Power@@ 1421
Ston@@ 1421
Fallout 1421
Safety 1420
Philipp@@ 1420
iru 1420
anim@@ 1420
IV@@ 1420
nung 1419
Contest 1418
Sport 1418
ground 1418
eball 1418
kov@@ 1418
Pressure 1418
Uns@@ 1418
Undercover 1418
Raiders 1417
Colorado 1417
EST 1417
#1.359 1417
sak@@ 1416
Actors 1416
Bee 1416
Decis@@ 1416
SE 1416
lev@@ 1415
Uma 1415
ge, 1415
ers! 1415
evo 1414
iento 1413
ight: 1413
It! 1413
MAN 1413
#1.360 1413
Homecoming 1412
Runaway 1412
Weather 1412
Linda 1412
Entertainment 1412
Becoming 1412
Letters 1411
Hungry 1411
Bid@@ 1411
Anders@@ 1411
Carlis@@ 1411
Democr@@ 1411
#1.361 1411
Tax@@ 1410
Wrec@@ 1410
Manh@@ 1410
kô@@ 1410
zer@@ 1409
eli 1409
Encoun@@ 1409
~@@ 1409
#1.81@@ 1409
asse 1408
Spanish 1408
change 1408
Short@@ 1408
Luis 1408
Pittsburgh 1408
Convers@@ 1407
ane@@ 1407
y. 1407
Andrea 1407
schaf@@ 1406
oru 1406
Utah 1406
Stev@@ 1406
U.S. 1406
Files 1406
tually 1406
Et 1405
Wish@@ 1405
Soul@@ 1405
rell 1405
11: 1405
'n 1404
it, 1404
rev@@ 1404
Experiment 1403
Es 1403
uff@@ 1403
happ@@ 1403
Champion 1402
.0@@ 1402
Grac@@ 1401
Spon@@ 1401
GA@@ 1401
#1.364 1401
wife 1400
Sport@@ 1400
verl@@ 1400
ault 1400
ONE 1400
fi@@ 1399
shin@@ 1399
Capt@@ 1399
Gentl@@ 1398
Cage 1398
Wed@@ 1398
Where's 1398
Len@@ 1398
sequ@@ 1398
#2.35 1398
#1.363 1398
Amateur 1397
Ple@@ 1397
mar 1397
gia 1397
ucker 1397
LIVE@@ 1397
#1.362 1397
etzt 1396
Bene@@ 1396
zie 1396
oles 1396
istic 1396
Drunk 1396
!: 1396
Neighbor 1395
Fourth 1395
DOW@@ 1395
Autumn 1394
perd@@ 1394
#1.365 1394
Bour@@ 1393
Than@@ 1393
Katie 1392
Murders 1392
Tol@@ 1392
Dh@@ 1392
erle@@ 1392
Hoff@@ 1391
neue 1391
Shower 1391
Milwau@@ 1391
Barbie 1391
Bubble 1390
R. 1390
+@@ 1390
#9@@ 1390
TION 1390
#1.366 1390
eness 1389
Empty 1389
Walk@@ 1389
Ce@@ 1389
POV 1389
#6.7 1389
Farewell 1388
Clock 1388
Temple 1388
Sky@@ 1388
enge 1388
not@@ 1387
Thro@@ 1387
Neg@@ 1387
Bike 1386
rad@@ 1384
fall@@ 1384
ship@@ 1384
Zo@@ 1384
through 1384
0) 1384
#1.368 1384
than 1383
ar: 1383
FIN@@ 1383
Idol 1382
Kick@@ 1382
vive 1382
kt 1382
ston 1382
Tox@@ 1382
GO 1382
#1.367 1382
conc@@ 1381
Irish 1381
Wenn 1380
ajo 1380
Lion@@ 1380
Because 1380
Young@@ 1380
#1.100@@ 1380
rant 1379
iar 1379
dio 1379
anal 1379
le/@@ 1379
Entre 1378
Giving 1378
Success 1378
isen 1378
Moore 1378
Kul@@ 1378
Year's 1377
inho 1377
ission 1377
ê 1377
fin 1376
ument@@ 1376
Para 1376
ey's 1376
Tries 1376
uu 1376
#1.372 1376
#1.370 1376
Citiz@@ 1375
Infer@@ 1375
iley 1375
amed 1375
esper@@ 1375
n/@@ 1375
#1.371 1375
#1.369 1375
Vie@@ 1374
Betrayal 1374
ortun@@ 1374
ru 1374
rav@@ 1374
Civil 1374
#4 1374
inas 1373
Lola 1373
God's 1373
eting 1373
1x@@ 1373
#1.373 1373
Explos@@ 1372
Thous@@ 1372
Rut@@ 1372
Changed 1372
ies, 1372
üch@@ 1372
Vit@@ 1372
iem 1372
Testim@@ 1371
Dare 1371
gang@@ 1371
#1.374 1371
sie@@ 1370
Hik@@ 1370
ublic 1370
abi 1369
Ú@@ 1368
some 1368
som@@ 1368
Treat@@ 1368
Loving 1368
rix 1368
Penn@@ 1367
Occ@@ 1367
Theory 1367
über@@ 1367
#1.375 1367
Anat@@ 1366
Smart 1366
Security 1366
Trash 1366
#2.36 1366
uk 1365
onto 1365
Holidays 1365
date 1365
Jump@@ 1364
Gav@@ 1364
Rider 1364
Major 1364
esse 1364
nia 1364
ées 1364
Form@@ 1364
Mummy 1363
kri@@ 1363
dit 1363
aria 1362
ilia 1362
Pick 1362
Winner 1362
olas 1362
6/@@ 1362
tas 1361
Pitch 1361
AI 1361
Bau@@ 1360
Finally 1360
bin 1360
Rah@@ 1360
Auto@@ 1359
Britain 1359
Hollywood@@ 1359
Tuesday 1359
#1.376 1359
#1.378 1359
#1.377 1359
urch 1358
Priv@@ 1352
Rach@@ 1347
antas@@ 1346
anny 1342
Reun@@ 1338
pool 1336
Gesch@@ 1334
ë 1334
.I@@ 1331
Lew@@ 1330
Lang@@ 1329
emon 1329
Color@@ 1327
Fren@@ 1324
vs@@ 1320
Problem@@ 1318
ù 1316
kes 1315
enn 1315
MIL@@ 1315
Detec@@ 1311
Rabb@@ 1311
Trib@@ 1310
vel 1308
iness 1306
Jap@@ 1299
zt 1298
aul 1294
Chick@@ 1293
itl@@ 1293
#20@@ 1290
#18@@ 1283
sters 1277
Fru@@ 1276
jun@@ 1276
inner 1270
Person@@ 1267
Jour@@ 1266
ussy 1265
come 1264
ield 1263
iver@@ 1250
onde 1248
Spid@@ 1248
Dut@@ 1245
ral 1241
Chall@@ 1241
ocking 1240
#23@@ 1239
NB@@ 1238
iving 1236
Minu@@ 1235
Present@@ 1234
olution 1224
Chil@@ 1222
Stru@@ 1216
Wrestl@@ 1215
umber 1197
Fres@@ 1194
're 1192
xt 1189
acle 1188
Did@@ 1187
self 1179
Premi@@ 1171
Woo@@ 1170
Tech@@ 1169
sg@@ 1167
uli 1166
togra@@ 1164
Lond@@ 1153
Awak@@ 1150
Buff@@ 1150
Butter@@ 1147
Anton@@ 1143
Dag@@ 1141
anted 1138
° 1138
Dang@@ 1133
ool@@ 1131
Amer@@ 1129
ial: 1127
Journ@@ 1124
7.1@@ 1123
Champ@@ 1122
Act@@ 1122
rom 1117
ember 1115
Festiv@@ 1115
Arg@@ 1114
Differ@@ 1111
ril 1110
Lesb@@ 1104
thing 1102
pend@@ 1099
oming 1099
r. 1096
owers 1091
ways 1086
Bonda@@ 1086
athan 1082
Extre@@ 1079
Civ@@ 1066
Democ@@ 1066
ü 1063
ouble 1063
Gent@@ 1062
Educ@@ 1061
Figh@@ 1057
Favor@@ 1055
Experim@@ 1049
Jim@@ 1045
Husb@@ 1039
Aust@@ 1037
Minec@@ 1034
ayl@@ 1031
Hallow@@ 1028
ould 1028
ague 1023
Å@@ 1018
essions 1018
Coff@@ 1009
view@@ 1009
Chron@@ 1007
clus@@ 1005
isode 1004
Beauti@@ 1002
agged 998
Belie@@ 994
ummy 993
egen 993
Zomb@@ 990
Isra@@ 985
#24@@ 984
burg@@ 982
friend 982
#26@@ 982
heter 977
otten 973
Bey@@ 967
Span@@ 963
uary 958
Ques@@ 958
Sym@@ 957
Engl@@ 951
Energ@@ 951
Count@@ 950
Grou@@ 949
Piz@@ 947
YouT@@ 946
Yog@@ 943
Contro@@ 942
ults 938
Highl@@ 933
Commerc@@ 932
Ô@@ 916
#25@@ 916
Fash@@ 915
Alm@@ 914
Therap@@ 906
Bom@@ 901
Afric@@ 901
Spo@@ 900
Satur@@ 898
.C@@ 898
Cz@@ 893
Goodb@@ 889
Desper@@ 886
Carp@@ 886
Gian@@ 883
Elect@@ 882
.O@@ 881
ucking 874
Aar@@ 870
Entertain@@ 862
Progr@@ 859
Yell@@ 853
opping 852
Hosp@@ 851
ít@@ 842
utsch@@ 838
Drac@@ 836
Oran@@ 833
Invest@@ 833
Prom@@ 830
bour@@ 826
Theat@@ 825
tain@@ 825
Eleph@@ 823
Chann@@ 822
other 814
ip: 811
:55 809
× 807
Marri@@ 805
Portra@@ 804
timate 802
Enter@@ 800
É 797
Chronic@@ 794
ine's 787
isk 786
sea 786
blem@@ 778
kra@@ 773
TION@@ 773
Exclus@@ 771
#10@@ 765
sep@@ 759
Ster@@ 759
Restaur@@ 752
Tayl@@ 750
icide 748
DES@@ 747
= 744
[@@ 744
estiv@@ 743
Document@@ 740
Bach@@ 735
I'@@ 733
Tomor@@ 732
at's 729
Jaz@@ 728
FL 722
nd 720
Mans@@ 715
ross 705
Í@@ 702
yen 701
Colle@@ 699
Ó@@ 695
Danger@@ 695
Wres@@ 693
Manch@@ 687
ò@@ 686
Togeth@@ 685
Disapp@@ 684
ember@@ 680
Warri@@ 677
atest 676
Sys@@ 674
] 667
Youn@@ 664
Betray@@ 660
Voy@@ 660
ety 660
«@@ 658
Your@@ 657
Ghos@@ 657
# 655
ened 646
fly 641
Eliz@@ 640
flu@@ 638
enste@@ 635
mare 629
TRO@@ 629
» 626
iders 623
ateur 622
Won@@ 622
Deliv@@ 615
fast 613
auti@@ 612
Chel@@ 610
aught 609
Virgin@@ 609
rd 609
Muse@@ 604
Ident@@ 604
Arth@@ 602
abeth 597
fir@@ 594
Some@@ 587
REAC@@ 587
Less@@ 584
Invas@@ 584
º 581
mp 580
Ã@@ 580
asure 576
ifer 573
Someth@@ 572
Virg@@ 568
Sold@@ 559
Wee@@ 549
01E@@ 548
adel@@ 545
Francis@@ 544
ference 543
Gov@@ 535
:45 534
Univer@@ 533
Kev@@ 531
Freed@@ 529
usk 528
	@@ 528
das@@ 525
Bigg@@ 523
ª 522
Frankenste@@ 519
fore 515
Hung@@ 513
Telev@@ 507
ween 505
boys 502
Beaut@@ 499
ray@@ 497
Thank@@ 494
Psy@@ 492
$ 492
burgh 492
BY@@ 492
ansas 487
Ø@@ 487
Wher@@ 483
Dif@@ 483
thr@@ 482
ò 482
ã 476
%@@ 476
Milit@@ 473
Tues@@ 464
REACTION@@ 462
ymp@@ 461
Galax@@ 460
olen 449
pisode 449
Rainb@@ 448
Apocalyp@@ 448
ASM@@ 448
cover 445
Pret@@ 444
ighty 442
Chocol@@ 440
Holida@@ 439
Conspir@@ 437
ì 437
napp@@ 434
ç 431
Dall@@ 431
ld 430
ggy 429
`@@ 421
Incred@@ 418
Lunch@@ 416
Â@@ 413
Though@@ 411
Press@@ 407
#1.1@@ 406
Farew@@ 404
ð@@ 391
Invis@@ 390
Cryst@@ 390
Annivers@@ 380
üm 379
Japan@@ 378
Calif@@ 377
ø 368
geth@@ 365
yler 363
Unex@@ 358
Inde@@ 352
urity 341
ossible 338
ocalyp@@ 335
core 333
Espec@@ 328
augh 326
gabe 324
.A@@ 321
tory 318
ocol@@ 316
shine 311
Ê@@ 309
Tournam@@ 308
Bullet@@ 303
Forb@@ 301
blem 299
Toky@@ 293
ï 289
ocal@@ 284
Venge@@ 279
Phoen@@ 279
Ain@@ 276
Basket@@ 276
Syd@@ 275
Î@@ 272
Febru@@ 272
°@@ 271
nytt 271
=@@ 269
Unkn@@ 268
Campa@@ 266
;@@ 266
Barcel@@ 260
Detro@@ 257
esn't 257
º@@ 254
tober 253
Brookl@@ 251
·@@ 247
£@@ 246
itel 245
PW 239
_ 236
Þ@@ 236
ything 231
aughty 230
ð 228
#11@@ 227
ì@@ 226
Massac@@ 221
Redemp@@ 220
Æ@@ 214
itled 214
uar 211
( 205
Orle@@ 203
»@@ 200
|@@ 198
Philadelph@@ 196
Epis@@ 191
Thanksg@@ 191
Dail@@ 189
Californ@@ 186
® 186
lever@@ 183
okl@@ 182
iday 178
pected 176
Liver@@ 174
idden 173
È 171
« 171
revyen 168
cue 163
Autum@@ 162
feb@@ 162
À@@ 160
Homec@@ 159
zona 151
Spiri@@ 149
ítulo 149
È@@ 148
> 141
#14@@ 140
ölüm 137
dags@@ 128
Å 127
ù@@ 126
Pitts@@ 125
Philos@@ 124
þ@@ 123
tral@@ 121
· 118
Ñ@@ 116
Dags@@ 116
´@@ 116
Á 113
½ 108
^@@ 108
õ 98
#12@@ 98
Ô 97
<@@ 96
echan 95
ypusk 95
#13@@ 95
² 94
Aftern@@ 93
lds 93
#15@@ 93
kvar@@ 92
Minnes@@ 91
nitt 90
Hollyw@@ 90
Anci@@ 88
levering 88
#17@@ 88
Avs@@ 87
Õ@@ 87
Ó 85
ebru@@ 84
]@@ 82
Akan@@ 81
18:@@ 79
#16@@ 75
Ê 75
Ö 69
^ 63
æ 60
×@@ 56
Phan@@ 53
Í 52
Ò@@ 52
\@@ 52
` 50
>@@ 49
Øst@@ 48
ódio 45
½@@ 44
Æ 35
Û@@ 34
®@@ 32
\ 29
§ 28
Ø 28
³ 27
Ã 26
Ì@@ 24
Ë@@ 23
Neigh@@ 21
tember 19
< 19
¥@@ 19
²@@ 18
¢@@ 17
wau@@ 17
Willi@@ 16
¢ 16
ÿ@@ 16
§@@ 15
eph 15
Ú 15
¤@@ 15
Ï@@ 14
Odcin@@ 12
adelph@@ 12
ñ 11
Ü 10
¿ 10
[ 10
Matthe@@ 9
Ç 9
¨@@ 9
Â 8
¾ 8
© 8
¡ 8
・@@ 7
³@@ 7
febru@@ 7
Ä 7
¨ 7
Ò 6
Ù 6
ō@@ 6
Î 6
¹@@ 5
´ 5
Ñ 4
¥ 4
µ@@ 4
± 3
鉄@@ 3
拳 3
¦ 3
ÿ 3
Ý@@ 3
Distrik@@ 3
Ë 3
£ 3
の@@ 3
輩@@ 3
÷@@ 2
ª@@ 2
©@@ 2
Ù@@ 2
… 2
¬@@ 2
¯@@ 2
¾@@ 2
¸@@ 2
¸ 2
Ż@@ 2
ā@@ 2
ł@@ 2
あ@@ 2
た@@ 2
先@@ 2
キ@@ 2
ス@@ 2
レ@@ 2
ズ@@ 2
し@@ 2
Ş@@ 1
А 1
ş@@ 1
е 1
Ł@@ 1
ź 1
¯ 1
{@@ 1
} 1
­@@ 1
Ⅱ@@ 1
¹ 1
Ý 1
č 1
ć@@ 1
Ì 1
ī 1
ż@@ 1
ń@@ 1
İ@@ 1
ś@@ 1
暗@@ 1
黑@@ 1
武@@ 1
術@@ 1
会 1
？ 1
〇 1
姆@@ 1
兰@@ 1
河@@ 1
那@@ 1
边 1
【@@ 1
】@@ 1
Ⅰ 1
Ⅱ 1
¼@@ 1
怠@@ 1
け@@ 1
癖@@ 1
る@@ 1
干@@ 1
物@@ 1
女@@ 1
と@@ 1
思@@ 1
っ@@ 1
て@@ 1
い@@ 1
が@@ 1
実@@ 1
は@@ 1
シ@@ 1
ゴ@@ 1
デ@@ 1
。@@ 1
ギ@@ 1
ャ@@ 1
ッ@@ 1
プ@@ 1
り@@ 1
す@@ 1
ぎ@@ 1
濃@@ 1
厚@@ 1
で@@ 1
堕@@ 1
ち@@ 1
私 1
や@@ 1
ら@@ 1
か@@ 1
窓@@ 1
際@@ 1
期@@ 1
待@@ 1
新@@ 1
人@@ 1
後@@ 1
　@@ 1
オ@@ 1
フ@@ 1
ィ@@ 1
ビ@@ 1
ア@@ 1
ン 1
¶@@ 1
Ν@@ 1
¦@@ 1
：@@ 1
¬ 1
¼ 1
